{
  "!": 0,
  "\"": 1,
  "#": 2,
  "$": 3,
  "%": 4,
  "&": 5,
  "'": 6,
  "(": 7,
  ")": 8,
  "*": 9,
  "+": 10,
  ",": 11,
  "-": 12,
  ".": 13,
  "/": 14,
  "0": 15,
  "1": 16,
  "2": 17,
  "3": 18,
  "4": 19,
  "5": 20,
  "6": 21,
  "7": 22,
  "8": 23,
  "9": 24,
  ":": 25,
  ";": 26,
  "<": 27,
  "=": 28,
  ">": 29,
  "?": 30,
  "@": 31,
  "A": 32,
  "B": 33,
  "C": 34,
  "D": 35,
  "E": 36,
  "F": 37,
  "G": 38,
  "H": 39,
  "I": 40,
  "J": 41,
  "K": 42,
  "L": 43,
  "M": 44,
  "N": 45,
  "O": 46,
  "P": 47,
  "Q": 48,
  "R": 49,
  "S": 50,
  "T": 51,
  "U": 52,
  "V": 53,
  "W": 54,
  "X": 55,
  "Y": 56,
  "Z": 57,
  "[": 58,
  "\\": 59,
  "]": 60,
  "^": 61,
  "_": 62,
  "`": 63,
  "a": 64,
  "b": 65,
  "c": 66,
  "d": 67,
  "e": 68,
  "f": 69,
  "g": 70,
  "h": 71,
  "i": 72,
  "j": 73,
  "k": 74,
  "l": 75,
  "m": 76,
  "n": 77,
  "o": 78,
  "p": 79,
  "q": 80,
  "r": 81,
  "s": 82,
  "t": 83,
  "u": 84,
  "v": 85,
  "w": 86,
  "x": 87,
  "y": 88,
  "z": 89,
  "{": 90,
  "|": 91,
  "}": 92,
  "~": 93,
  "\u00a1": 94,
  "\u00a2": 95,
  "\u00a3": 96,
  "\u00a4": 97,
  "\u00a5": 98,
  "\u00a6": 99,
  "\u00a7": 100,
  "\u00a8": 101,
  "\u00a9": 102,
  "\u00aa": 103,
  "\u00ab": 104,
  "\u00ac": 105,
  "\u00ae": 106,
  "\u00af": 107,
  "\u00b0": 108,
  "\u00b1": 109,
  "\u00b2": 110,
  "\u00b3": 111,
  "\u00b4": 112,
  "\u00b5": 113,
  "\u00b6": 114,
  "\u00b7": 115,
  "\u00b8": 116,
  "\u00b9": 117,
  "\u00ba": 118,
  "\u00bb": 119,
  "\u00bc": 120,
  "\u00bd": 121,
  "\u00be": 122,
  "\u00bf": 123,
  "\u00c0": 124,
  "\u00c1": 125,
  "\u00c2": 126,
  "\u00c3": 127,
  "\u00c4": 128,
  "\u00c5": 129,
  "\u00c6": 130,
  "\u00c7": 131,
  "\u00c8": 132,
  "\u00c9": 133,
  "\u00ca": 134,
  "\u00cb": 135,
  "\u00cc": 136,
  "\u00cd": 137,
  "\u00ce": 138,
  "\u00cf": 139,
  "\u00d0": 140,
  "\u00d1": 141,
  "\u00d2": 142,
  "\u00d3": 143,
  "\u00d4": 144,
  "\u00d5": 145,
  "\u00d6": 146,
  "\u00d7": 147,
  "\u00d8": 148,
  "\u00d9": 149,
  "\u00da": 150,
  "\u00db": 151,
  "\u00dc": 152,
  "\u00dd": 153,
  "\u00de": 154,
  "\u00df": 155,
  "\u00e0": 156,
  "\u00e1": 157,
  "\u00e2": 158,
  "\u00e3": 159,
  "\u00e4": 160,
  "\u00e5": 161,
  "\u00e6": 162,
  "\u00e7": 163,
  "\u00e8": 164,
  "\u00e9": 165,
  "\u00ea": 166,
  "\u00eb": 167,
  "\u00ec": 168,
  "\u00ed": 169,
  "\u00ee": 170,
  "\u00ef": 171,
  "\u00f0": 172,
  "\u00f1": 173,
  "\u00f2": 174,
  "\u00f3": 175,
  "\u00f4": 176,
  "\u00f5": 177,
  "\u00f6": 178,
  "\u00f7": 179,
  "\u00f8": 180,
  "\u00f9": 181,
  "\u00fa": 182,
  "\u00fb": 183,
  "\u00fc": 184,
  "\u00fd": 185,
  "\u00fe": 186,
  "\u00ff": 187,
  "\u0100": 188,
  "\u0101": 189,
  "\u0102": 190,
  "\u0103": 191,
  "\u0104": 192,
  "\u0105": 193,
  "\u0106": 194,
  "\u0107": 195,
  "\u0108": 196,
  "\u0109": 197,
  "\u010a": 198,
  "\u010b": 199,
  "\u010c": 200,
  "\u010d": 201,
  "\u010e": 202,
  "\u010f": 203,
  "\u0110": 204,
  "\u0111": 205,
  "\u0112": 206,
  "\u0113": 207,
  "\u0114": 208,
  "\u0115": 209,
  "\u0116": 210,
  "\u0117": 211,
  "\u0118": 212,
  "\u0119": 213,
  "\u011a": 214,
  "\u011b": 215,
  "\u011c": 216,
  "\u011d": 217,
  "\u011e": 218,
  "\u011f": 219,
  "\u0120": 220,
  "\u0121": 221,
  "\u0122": 222,
  "\u0123": 223,
  "\u0124": 224,
  "\u0125": 225,
  "\u0126": 226,
  "\u0127": 227,
  "\u0128": 228,
  "\u0129": 229,
  "\u012a": 230,
  "\u012b": 231,
  "\u012c": 232,
  "\u012d": 233,
  "\u012e": 234,
  "\u012f": 235,
  "\u0130": 236,
  "\u0131": 237,
  "\u0132": 238,
  "\u0133": 239,
  "\u0134": 240,
  "\u0135": 241,
  "\u0136": 242,
  "\u0137": 243,
  "\u0138": 244,
  "\u0139": 245,
  "\u013a": 246,
  "\u013b": 247,
  "\u013c": 248,
  "\u013d": 249,
  "\u013e": 250,
  "\u013f": 251,
  "\u0140": 252,
  "\u0141": 253,
  "\u0142": 254,
  "\u0143": 255,
  "\u0120\u0120": 256,
  "\u0120\u0120\u0120\u0120": 257,
  "in": 258,
  "\u0120t": 259,
  "er": 260,
  "\u0120\u0120\u0120": 261,
  "on": 262,
  "\u0120a": 263,
  "re": 264,
  "at": 265,
  "st": 266,
  "en": 267,
  "or": 268,
  "\u0120th": 269,
  "\u010a\u010a": 270,
  "\u0120c": 271,
  "le": 272,
  "\u0120s": 273,
  "it": 274,
  "an": 275,
  "ar": 276,
  "al": 277,
  "\u0120the": 278,
  ";\u010a": 279,
  "\u0120p": 280,
  "\u0120f": 281,
  "ou": 282,
  "\u0120=": 283,
  "is": 284,
  "ing": 285,
  "es": 286,
  "\u0120w": 287,
  "ion": 288,
  "ed": 289,
  "ic": 290,
  "\u0120b": 291,
  "\u0120d": 292,
  "et": 293,
  "\u0120m": 294,
  "\u0120o": 295,
  "\u0109\u0109": 296,
  "ro": 297,
  "as": 298,
  "el": 299,
  "ct": 300,
  "nd": 301,
  "\u0120in": 302,
  "\u0120h": 303,
  "ent": 304,
  "id": 305,
  "\u0120n": 306,
  "am": 307,
  "\u0120to": 308,
  "\u0120re": 309,
  "\u0120{": 310,
  "\u0120of": 311,
  "om": 312,
  ");\u010a": 313,
  "im": 314,
  "\u010d\u010a": 315,
  "\u0120(": 316,
  "il": 317,
  "\u0120and": 318,
  "ur": 319,
  "se": 320,
  "\u0120l": 321,
  "ex": 322,
  "\u0120S": 323,
  "ad": 324,
  "\u0120\"": 325,
  "ch": 326,
  "ut": 327,
  "if": 328,
  "\u0120}": 329,
  "em": 330,
  "ol": 331,
  "th": 332,
  ")\u010a": 333,
  "\u0120{\u010a": 334,
  "\u0120g": 335,
  "ig": 336,
  "iv": 337,
  ",\u010a": 338,
  "ce": 339,
  "od": 340,
  "\u0120v": 341,
  "ate": 342,
  "\u0120T": 343,
  "ag": 344,
  "ay": 345,
  "\u0120*": 346,
  "ot": 347,
  "us": 348,
  "\u0120C": 349,
  "\u0120st": 350,
  "\u0120I": 351,
  "un": 352,
  "ul": 353,
  "ue": 354,
  "\u0120A": 355,
  "ow": 356,
  "\u0120'": 357,
  "ew": 358,
  "\u0120<": 359,
  "()": 360,
  "\u0120for": 361,
  "ab": 362,
  "ort": 363,
  "um": 364,
  "ame": 365,
  "\u0120is": 366,
  "pe": 367,
  "tr": 368,
  "ck": 369,
  "\u00e2\u0122": 370,
  "\u0120y": 371,
  "ist": 372,
  ".\u010a\u010a": 373,
  "he": 374,
  "\u0120e": 375,
  "lo": 376,
  "\u0120M": 377,
  "\u0120be": 378,
  "ers": 379,
  "\u0120on": 380,
  "\u0120con": 381,
  "ap": 382,
  "ub": 383,
  "\u0120P": 384,
  "ass": 385,
  "int": 386,
  ">\u010a": 387,
  "ly": 388,
  "urn": 389,
  "\u0120$": 390,
  ";\u010a\u010a": 391,
  "av": 392,
  "port": 393,
  "ir": 394,
  "nt": 395,
  "end": 396,
  "\u0120de": 397,
  "ith": 398,
  "out": 399,
  "turn": 400,
  "our": 401,
  "lic": 402,
  "res": 403,
  "pt": 404,
  "\u0120wh": 405,
  "\u0120if": 406,
  "\u0120D": 407,
  "ver": 408,
  "age": 409,
  "\u0120B": 410,
  "ht": 411,
  "ext": 412,
  "\u0120R": 413,
  "\u0120it": 414,
  "ess": 415,
  "\u0120F": 416,
  "\u0120r": 417,
  "os": 418,
  "and": 419,
  "\u0120as": 420,
  "ect": 421,
  "ke": 422,
  "rom": 423,
  "\u0120//": 424,
  "con": 425,
  "\u0120L": 426,
  "qu": 427,
  "lass": 428,
  "iz": 429,
  "de": 430,
  "\u0120N": 431,
  "\u0120al": 432,
  "op": 433,
  "up": 434,
  "get": 435,
  "\u0120}\u010a": 436,
  "ile": 437,
  "\u0120an": 438,
  "ata": 439,
  "ore": 440,
  "ri": 441,
  "\u0120pro": 442,
  ";\u010d\u010a": 443,
  "\u0109\u0109\u0109\u0109": 444,
  "ter": 445,
  "ain": 446,
  "\u0120W": 447,
  "\u0120E": 448,
  "\u0120com": 449,
  "art": 450,
  "\u0120H": 451,
  "ack": 452,
  "\u0120or": 453,
  "est": 454,
  "ment": 455,
  "\u0120G": 456,
  "able": 457,
  "\u0120-": 458,
  "ine": 459,
  "ill": 460,
  "ind": 461,
  "ere": 462,
  "ity": 463,
  "\u0120+": 464,
  "\u0120tr": 465,
  "elf": 466,
  "ight": 467,
  "orm": 468,
  "ult": 469,
  "str": 470,
  "\u0120you": 471,
  "ype": 472,
  "pl": 473,
  "\u0120new": 474,
  "\u0120j": 475,
  "\u0120ex": 476,
  "\u0120O": 477,
  "ld": 478,
  "\u0120[": 479,
  "oc": 480,
  ":\u010a": 481,
  "\u0120se": 482,
  "\u0120le": 483,
  "{\u010a": 484,
  "ant": 485,
  "\u0120at": 486,
  "ase": 487,
  "\u0120ch": 488,
  "ave": 489,
  "ang": 490,
  "\u0120are": 491,
  "\u0120int": 492,
  "\u00e2\u0122\u013b": 493,
  "ert": 494,
  "ial": 495,
  "act": 496,
  "}\u010a": 497,
  "ive": 498,
  "ode": 499,
  "ost": 500,
  "\u0120not": 501,
  "og": 502,
  "ord": 503,
  "alue": 504,
  "all": 505,
  "ff": 506,
  "();\u010a": 507,
  "ont": 508,
  "ime": 509,
  "are": 510,
  "\u0120U": 511,
  "\u0120pr": 512,
  "\u0120:": 513,
  "ies": 514,
  "ize": 515,
  "ure": 516,
  "\u0120by": 517,
  "ire": 518,
  "\u0120}\u010a\u010a": 519,
  "\u0120sh": 520,
  "ice": 521,
  "ast": 522,
  "ok": 523,
  "cl": 524,
  "\u0120he": 525,
  "ard": 526,
  "\u0120@": 527,
  "iew": 528,
  "\u0109\u0109\u0109": 529,
  "\u0120was": 530,
  "ip": 531,
  "this": 532,
  "\u0120u": 533,
  "\u0120The": 534,
  "ide": 535,
  "ace": 536,
  "ib": 537,
  "ac": 538,
  "rou": 539,
  "\u0120we": 540,
  "ject": 541,
  "ak": 542,
  "ve": 543,
  "ath": 544,
  "oid": 545,
  "\u0120=>": 546,
  "ust": 547,
  "que": 548,
  "\u0120res": 549,
  "\u0120k": 550,
  "ans": 551,
  "yst": 552,
  "\u0120i": 553,
  "\u0120us": 554,
  "pp": 555,
  "one": 556,
  "ail": 557,
  "name": 558,
  "\u0120str": 559,
  "\u0120/": 560,
  "\u0120&": 561,
  "ach": 562,
  "div": 563,
  "ell": 564,
  "err": 565,
  "ould": 566,
  "ull": 567,
  "pon": 568,
  "\u0120J": 569,
  "\u0120==": 570,
  "ign": 571,
  "St": 572,
  ".\u010a": 573,
  "\u0120pl": 574,
  ");\u010a\u010a": 575,
  "form": 576,
  "put": 577,
  "ount": 578,
  "}\u010a\u010a": 579,
  "dd": 580,
  "ite": 581,
  "\u0120get": 582,
  "rr": 583,
  "ome": 584,
  "\u0120\u00e2\u0122": 585,
  "aram": 586,
  "cc": 587,
  "\u0120*/": 588,
  "ER": 589,
  "In": 590,
  "les": 591,
  "ong": 592,
  "ie": 593,
  "\u0120can": 594,
  "\u0120V": 595,
  "erv": 596,
  "pr": 597,
  "\u0120un": 598,
  "row": 599,
  "ber": 600,
  "\u0120do": 601,
  "ll": 602,
  "\u0120el": 603,
  "ated": 604,
  "ary": 605,
  "\u0120.": 606,
  "ud": 607,
  "\u0120en": 608,
  "\u0120Th": 609,
  "te": 610,
  "uct": 611,
  "\u0120ab": 612,
  "ork": 613,
  "\u0120#": 614,
  "aw": 615,
  "ress": 616,
  "ob": 617,
  "Name": 618,
  "app": 619,
  "\u0120all": 620,
  "ory": 621,
  "ance": 622,
  "ear": 623,
  "vent": 624,
  "ia": 625,
  "IN": 626,
  "\u0120</": 627,
  "data": 628,
  ")\u010a\u010a": 629,
  "Re": 630,
  "ple": 631,
  "ild": 632,
  "ther": 633,
  "\"\u010a": 634,
  "\u0120out": 635,
  "\u0120has": 636,
  "so": 637,
  "\u0120up": 638,
  "ax": 639,
  "\u0120def": 640,
  "\u0120bo": 641,
  "ge": 642,
  "alse": 643,
  "ON": 644,
  "per": 645,
  "ich": 646,
  "\u0120but": 647,
  "\u0120\u010a": 648,
  "\u0120_": 649,
  "add": 650,
  "odel": 651,
  "self": 652,
  "ery": 653,
  "ft": 654,
  "ens": 655,
  "ake": 656,
  "\u0120go": 657,
  "\u0120K": 658,
  "\u0120im": 659,
  "\u0120*/\u010a": 660,
  ");\u010d\u010a": 661,
  "\u0120set": 662,
  "cri": 663,
  "()\u010a": 664,
  "li": 665,
  "\u0109if": 666,
  "ally": 667,
  "set": 668,
  "ep": 669,
  "\u00e2\u0122\u013bs": 670,
  "bo": 671,
  "def": 672,
  "',\u010a": 673,
  "\u0120me": 674,
  "\u0120!": 675,
  "atch": 676,
  "\",\u010a": 677,
  "ec": 678,
  "\u0120In": 679,
  "ph": 680,
  "\u0120|": 681,
  "\u0120var": 682,
  "ence": 683,
  "Id": 684,
  "ree": 685,
  "ink": 686,
  "lect": 687,
  "ug": 688,
  "eth": 689,
  "cont": 690,
  "\u0120so": 691,
  "atic": 692,
  "\u0120lo": 693,
  "pro": 694,
  "ton": 695,
  "ss": 696,
  "own": 697,
  "abel": 698,
  "oint": 699,
  "ous": 700,
  "eld": 701,
  "ST": 702,
  "The": 703,
  "RE": 704,
  "olor": 705,
  "tp": 706,
  "eg": 707,
  "key": 708,
  "ude": 709,
  "\u0120St": 710,
  "ound": 711,
  "\u0120ar": 712,
  "\");\u010a": 713,
  "ener": 714,
  "ser": 715,
  "fer": 716,
  "ents": 717,
  "\u0120his": 718,
  "\u0120Y": 719,
  "use": 720,
  "ne": 721,
  "ish": 722,
  "old": 723,
  "io": 724,
  "ield": 725,
  "\u0120per": 726,
  "Cont": 727,
  "ings": 728,
  "\u0120sa": 729,
  "ef": 730,
  "fo": 731,
  "\u0120one": 732,
  "eng": 733,
  "\u0120dis": 734,
  "AT": 735,
  "val": 736,
  "led": 737,
  "\u0120ne": 738,
  "\u0120end": 739,
  "cre": 740,
  "ark": 741,
  "log": 742,
  "Ex": 743,
  "urre": 744,
  "ange": 745,
  "rray": 746,
  "\u0120my": 747,
  "pan": 748,
  "ict": 749,
  "ator": 750,
  "View": 751,
  "List": 752,
  "\u00e2\u0122\u013f": 753,
  "\u0120pre": 754,
  "\u0120x": 755,
  "arg": 756,
  "ov": 757,
  "\u0120>": 758,
  "irst": 759,
  "ick": 760,
  "gh": 761,
  "LE": 762,
  "OR": 763,
  "tem": 764,
  "\u010d\u010a\u010d\u010a": 765,
  "user": 766,
  "\u0120)": 767,
  "com": 768,
  "\";\u010a": 769,
  "\u0120id": 770,
  "read": 771,
  "\u0120who": 772,
  "\">\u010a": 773,
  "\u0120man": 774,
  "ry": 775,
  "roup": 776,
  "rop": 777,
  "vel": 778,
  "ble": 779,
  "\u0120any": 780,
  "we": 781,
  "\u0120li": 782,
  "nder": 783,
  "gr": 784,
  "\u0120no": 785,
  "fig": 786,
  "\u0120app": 787,
  "ions": 788,
  "\u0120Ch": 789,
  "\u0120add": 790,
  "\u0120su": 791,
  "ID": 792,
  "]\u010a": 793,
  "\u0120qu": 794,
  "ca": 795,
  "SE": 796,
  "\u0120ro": 797,
  "sh": 798,
  "ual": 799,
  "Type": 800,
  "son": 801,
  "new": 802,
  "ern": 803,
  "\u0120ag": 804,
  "AR": 805,
  "];\u010a": 806,
  "\u0120?": 807,
  "ical": 808,
  "\u0120des": 809,
  "uth": 810,
  "ix": 811,
  "ays": 812,
  "ault": 813,
  "var": 814,
  "IT": 815,
  "EN": 816,
  "enc": 817,
  "ra": 818,
  "cho": 819,
  "ose": 820,
  "\u0120!=": 821,
  "ater": 822,
  "\u00c3\u00a9": 823,
  "oll": 824,
  "pos": 825,
  "yle": 826,
  "ng": 827,
  "AL": 828,
  "ames": 829,
  "\u0120{\u010d\u010a": 830,
  "ates": 831,
  "ely": 832,
  "\u0120em": 833,
  "inal": 834,
  "\u0120sp": 835,
  "):\u010a": 836,
  "to": 837,
  "pect": 838,
  "ash": 839,
  "\u0120use": 840,
  "pec": 841,
  "\u0120ad": 842,
  "ove": 843,
  "ader": 844,
  "atus": 845,
  "Th": 846,
  "itle": 847,
  "rit": 848,
  "void": 849,
  "(\u010a": 850,
  "\u0120off": 851,
  "\u0120&&": 852,
  "';\u010a": 853,
  "ms": 854,
  "\u0120te": 855,
  "ml": 856,
  "co": 857,
  "nc": 858,
  "\u0120%": 859,
  "**\u010a": 860,
  "ann": 861,
  "ade": 862,
  "\u010a\u010a\u010a\u010a": 863,
  "lock": 864,
  "\u0120sup": 865,
  "date": 866,
  "\u0120acc": 867,
  "\u0120had": 868,
  "\u0120bu": 869,
  "\u0120Re": 870,
  "\u0120\u00e2\u0122\u013e": 871,
  "ven": 872,
  "iss": 873,
  "\u0120our": 874,
  "raw": 875,
  "Data": 876,
  "\u0120val": 877,
  "fter": 878,
  "ys": 879,
  "\u0120///": 880,
  "view": 881,
  "\u0120pe": 882,
  "du": 883,
  "of": 884,
  "line": 885,
  "duct": 886,
  "\u0120her": 887,
  "Res": 888,
  "\u0120co": 889,
  "ise": 890,
  "min": 891,
  "ute": 892,
  "\u0120ass": 893,
  "Int": 894,
  "ask": 895,
  "loc": 896,
  "ody": 897,
  "\u0120let": 898,
  "load": 899,
  "\u0120am": 900,
  "rol": 901,
  "\u0120gr": 902,
  "yp": 903,
  "\u0120It": 904,
  "url": 905,
  "ific": 906,
  "ors": 907,
  "igh": 908,
  "Com": 909,
  "AN": 910,
  "UL": 911,
  "ref": 912,
  "roll": 913,
  "ian": 914,
  "idth": 915,
  "));\u010a": 916,
  "der": 917,
  "reak": 918,
  "Con": 919,
  "ule": 920,
  "arch": 921,
  "\u0120<<": 922,
  "ush": 923,
  "ense": 924,
  "arr": 925,
  "cess": 926,
  "amp": 927,
  "ied": 928,
  "\u0120\\": 929,
  "wo": 930,
  "als": 931,
  "anc": 932,
  "olum": 933,
  "\u0120pos": 934,
  "ages": 935,
  "ayer": 936,
  "\u0120sc": 937,
  "ues": 938,
  "\")\u010a": 939,
  "Ch": 940,
  "\u0120z": 941,
  "\u0120kn": 942,
  "let": 943,
  "DE": 944,
  "red": 945,
  "\u0120fe": 946,
  "\u0120},\u010a": 947,
  "\u0120,": 948,
  "');\u010a": 949,
  "word": 950,
  "\u0120act": 951,
  "CT": 952,
  "\u0120Tr": 953,
  "ople": 954,
  "\u0109f": 955,
  "ient": 956,
  "cent": 957,
  "))\u010a": 958,
  "mer": 959,
  "ock": 960,
  "\u0120--": 961,
  "Text": 962,
  "\u0120op": 963,
  "ank": 964,
  "\u0120its": 965,
  "\u0120cl": 966,
  "\u0120sub": 967,
  "\u0120la": 968,
  "file": 969,
  "ner": 970,
  "ey": 971,
  "\u0120ent": 972,
  "\u0120Com": 973,
  "its": 974,
  "\u0120Con": 975,
  "ower": 976,
  "item": 977,
  "very": 978,
  "\u0120We": 979,
  "lick": 980,
  "\u0120Q": 981,
  "php": 982,
  "ttp": 983,
  "ics": 984,
  "\u0120*\u010a": 985,
  "ices": 986,
  "\u0120reg": 987,
  ")\u010d\u010a": 988,
  "SS": 989,
  "reat": 990,
  "ious": 991,
  "ek": 992,
  "heck": 993,
  "ning": 994,
  "\u0120Un": 995,
  "\u0120may": 996,
  "\u0120Wh": 997,
  "Bo": 998,
  "Item": 999,
  "ream": 1000,
  "ible": 1001,
  "loat": 1002,
  "\u0120org": 1003,
  "und": 1004,
  "sum": 1005,
  "\u0120how": 1006,
  "rite": 1007,
  "'\u010a": 1008,
  "To": 1009,
  "ww": 1010,
  "http": 1011,
  "\u0120ind": 1012,
  "\u0120jav": 1013,
  "],\u010a": 1014,
  "\u0120He": 1015,
  "ful": 1016,
  "ole": 1017,
  "){\u010a": 1018,
  "opy": 1019,
  "elp": 1020,
  "ier": 1021,
  "ION": 1022,
  "ote": 1023,
  "\u0120bet": 1024,
  "rror": 1025,
  "ular": 1026,
  "\u00e3\u0122": 1027,
  "\u0120\u00d0": 1028,
  "bs": 1029,
  "ting": 1030,
  "Tr": 1031,
  "RO": 1032,
  "rc": 1033,
  "day": 1034,
  "[]": 1035,
  "td": 1036,
  "cond": 1037,
  "\u0120Pro": 1038,
  "\u0120rem": 1039,
  "vid": 1040,
  "\u0120ext": 1041,
  "\u0120__": 1042,
  "')\u010a": 1043,
  "pace": 1044,
  "mp": 1045,
  "\u0120min": 1046,
  "air": 1047,
  "wh": 1048,
  "type": 1049,
  "util": 1050,
  "ait": 1051,
  "IC": 1052,
  "text": 1053,
  "\u0120ph": 1054,
  "\u0120fl": 1055,
  "br": 1056,
  "fore": 1057,
  "),\u010a": 1058,
  "ateg": 1059,
  "\u0120loc": 1060,
  "ins": 1061,
  "trib": 1062,
  "\u0120Int": 1063,
  "Pro": 1064,
  ">\u010a\u010a": 1065,
  "\u0120she": 1066,
  "aph": 1067,
  "\u0120exp": 1068,
  "erty": 1069,
  "\u0120Se": 1070,
  "\u0120par": 1071,
  "unc": 1072,
  "ET": 1073,
  "\u0120rel": 1074,
  "\u0120dr": 1075,
  "By": 1076,
  "\u0120aw": 1077,
  "uff": 1078,
  "play": 1079,
  "\u0120\u00e2\u0122\u0135": 1080,
  "\u0120||": 1081,
  "az": 1082,
  "be": 1083,
  "\u0120Ex": 1084,
  "\u0120col": 1085,
  "\u0120key": 1086,
  "\u0120two": 1087,
  "UT": 1088,
  "ough": 1089,
  "orld": 1090,
  "ood": 1091,
  "uch": 1092,
  "ger": 1093,
  "\u0120/*": 1094,
  "\u0120arg": 1095,
  "\u0120rec": 1096,
  "\u0120dif": 1097,
  "ride": 1098,
  "AM": 1099,
  "eter": 1100,
  "\u00e2\u0122\u013bt": 1101,
  "\u010a\u010a\u010a": 1102,
  "ager": 1103,
  "\u0120br": 1104,
  "ends": 1105,
  "ures": 1106,
  "ets": 1107,
  "\u0120If": 1108,
  "\u0120Sh": 1109,
  "back": 1110,
  "\u0120ser": 1111,
  "\u0120+=": 1112,
  "\u0120fr": 1113,
  "Ind": 1114,
  "ULL": 1115,
  "Im": 1116,
  "\u0120try": 1117,
  "\u0120now": 1118,
  ">\u010d\u010a": 1119,
  "\u0120him": 1120,
  "ify": 1121,
  "\u0120);\u010a": 1122,
  "ren": 1123,
  "itt": 1124,
  "\u0120ap": 1125,
  "\u0109c": 1126,
  "\u0120You": 1127,
  ":\u010a\u010a": 1128,
  "\u00d0\u00be": 1129,
  "\u0120std": 1130,
  "\u0120fil": 1131,
  "Time": 1132,
  "\u0120mod": 1133,
  "\u0120->": 1134,
  "ah": 1135,
  "lose": 1136,
  "ql": 1137,
  "\u0120pol": 1138,
  "User": 1139,
  "ased": 1140,
  "\u0120{\u010a\u010a": 1141,
  "\u00d0\u00b0": 1142,
  "ED": 1143,
  "span": 1144,
  "enu": 1145,
  "cept": 1146,
  "clud": 1147,
  "\u0120log": 1148,
  "fl": 1149,
  "\u0120see": 1150,
  "ason": 1151,
  "uild": 1152,
  "from": 1153,
  "\u0120bl": 1154,
  "else": 1155,
  "\u00d0\u00b5": 1156,
  "\u0120(!": 1157,
  "ized": 1158,
  "\u0120ob": 1159,
  "ump": 1160,
  "UR": 1161,
  "orn": 1162,
  "\u0120don": 1163,
  "Se": 1164,
  "man": 1165,
  "tn": 1166,
  "He": 1167,
  "gram": 1168,
  "\u0120did": 1169,
  "wn": 1170,
  "iver": 1171,
  "\u0120sm": 1172,
  "\u0120An": 1173,
  "che": 1174,
  "\u0120inv": 1175,
  "ouse": 1176,
  "\u0120es": 1177,
  "\u0120New": 1178,
  "mary": 1179,
  "uto": 1180,
  "ler": 1181,
  "try": 1182,
  "\u00ef\u00bc": 1183,
  "ily": 1184,
  "ines": 1185,
  "sole": 1186,
  "lear": 1187,
  "html": 1188,
  "\u0120cr": 1189,
  "ars": 1190,
  "\u0120tem": 1191,
  "face": 1192,
  "\u0120`": 1193,
  "ES": 1194,
  "\u0109\u010a": 1195,
  "ale": 1196,
  "roid": 1197,
  "\u0120ed": 1198,
  "ik": 1199,
  "reg": 1200,
  "\u0120De": 1201,
  "},\u010a": 1202,
  "rint": 1203,
  "att": 1204,
  "ined": 1205,
  "\u0120\"\"": 1206,
  "Key": 1207,
  "LO": 1208,
  "\u0120del": 1209,
  "pty": 1210,
  "\u0120And": 1211,
  "\u0120run": 1212,
  "\u0120X": 1213,
  "ym": 1214,
  "ces": 1215,
  "ared": 1216,
  "ward": 1217,
  "list": 1218,
  "ited": 1219,
  "olog": 1220,
  "itch": 1221,
  "Box": 1222,
  "ife": 1223,
  "\u0120ac": 1224,
  "\u0120mon": 1225,
  "\u0120way": 1226,
  "lete": 1227,
  "\u0120att": 1228,
  "\u0120cal": 1229,
  "vert": 1230,
  "\u0120dec": 1231,
  "oun": 1232,
  "fr": 1233,
  "\u0120num": 1234,
  "aj": 1235,
  "\u0120As": 1236,
  "IS": 1237,
  "Wh": 1238,
  "\u0120ins": 1239,
  "aint": 1240,
  "\u0120sim": 1241,
  "\u0120Ar": 1242,
  "mon": 1243,
  "til": 1244,
  "Set": 1245,
  "We": 1246,
  "At": 1247,
  "\u0120bel": 1248,
  "Man": 1249,
  "ware": 1250,
  "{\u010d\u010a": 1251,
  "\u0120:=": 1252,
  "ists": 1253,
  "lish": 1254,
  "\u0120Al": 1255,
  "\u0120gu": 1256,
  "time": 1257,
  "oken": 1258,
  "\u0120\u00c3": 1259,
  "lob": 1260,
  "\u0120}\u010d\u010a": 1261,
  "ps": 1262,
  "alk": 1263,
  "by": 1264,
  "Size": 1265,
  "ince": 1266,
  "En": 1267,
  "File": 1268,
  "uf": 1269,
  "AC": 1270,
  "\u0120que": 1271,
  "\u0120($": 1272,
  "IL": 1273,
  "ott": 1274,
  "less": 1275,
  "ING": 1276,
  "\u0120()": 1277,
  "ync": 1278,
  "urs": 1279,
  "pre": 1280,
  "\u0120)\u010a": 1281,
  "ma": 1282,
  "\u0120sur": 1283,
  "Info": 1284,
  "par": 1285,
  "imes": 1286,
  "ains": 1287,
  "\u0120sl": 1288,
  "PE": 1289,
  "/**\u010a": 1290,
  "FF": 1291,
  "ool": 1292,
  "qual": 1293,
  "\u0120For": 1294,
  "uc": 1295,
  "\u0120som": 1296,
  "char": 1297,
  "mit": 1298,
  "px": 1299,
  "vice": 1300,
  "}\u010d\u010a": 1301,
  "idd": 1302,
  "\u00e3\u0122\u0124": 1303,
  "\u0120med": 1304,
  "org": 1305,
  "ider": 1306,
  "ache": 1307,
  "work": 1308,
  "ween": 1309,
  "\u0120((": 1310,
  "the": 1311,
  "ants": 1312,
  "\u0120est": 1313,
  "IM": 1314,
  "\u00d1\u0124": 1315,
  "OT": 1316,
  "\u00c3\u00b3": 1317,
  "HE": 1318,
  "\u0120Res": 1319,
  "\u00d0\u00b8": 1320,
  "\u0120car": 1321,
  "ypes": 1322,
  "Un": 1323,
  "AD": 1324,
  "rows": 1325,
  "\u0120Pl": 1326,
  "Path": 1327,
  "\u0120av": 1328,
  "ENT": 1329,
  "rem": 1330,
  "\u0120own": 1331,
  "\u0120cor": 1332,
  "miss": 1333,
  "\u0120mem": 1334,
  "std": 1335,
  "\"\u010a\u010a": 1336,
  "Form": 1337,
  "\u0120sex": 1338,
  "\u0120et": 1339,
  "\u0120App": 1340,
  "off": 1341,
  "\u0120err": 1342,
  "code": 1343,
  "\u0120di": 1344,
  "uss": 1345,
  "fe": 1346,
  "UN": 1347,
  "ats": 1348,
  "\u0120Z": 1349,
  "alth": 1350,
  "true": 1351,
  "AB": 1352,
  "rid": 1353,
  ",\u010d\u010a": 1354,
  "yn": 1355,
  "\u0120fin": 1356,
  "eger": 1357,
  "ty": 1358,
  "\u0120cre": 1359,
  "arn": 1360,
  "ives": 1361,
  "ideo": 1362,
  "AG": 1363,
  "img": 1364,
  "PI": 1365,
  "rib": 1366,
  "OM": 1367,
  "\u0120day": 1368,
  "\u0120sk": 1369,
  "bers": 1370,
  "\u0109s": 1371,
  "oot": 1372,
  "\u0120top": 1373,
  "AS": 1374,
  "De": 1375,
  "\u0120On": 1376,
  "IG": 1377,
  "eta": 1378,
  "Date": 1379,
  "Over": 1380,
  "itor": 1381,
  "not": 1382,
  "her": 1383,
  "icon": 1384,
  "On": 1385,
  "mand": 1386,
  "OL": 1387,
  "\u0120max": 1388,
  "land": 1389,
  "raph": 1390,
  "leg": 1391,
  "?\u010a\u010a": 1392,
  "\u00e2\u0122\u00a6": 1393,
  "ook": 1394,
  "uck": 1395,
  "test": 1396,
  "\u0120art": 1397,
  "Get": 1398,
  "ene": 1399,
  "\u00c3\u00a1": 1400,
  "Node": 1401,
  "for": 1402,
  "\u0120\u00e2\u0122\u0136": 1403,
  "ten": 1404,
  "oin": 1405,
  "\u0120ke": 1406,
  "ui": 1407,
  "\u0120IN": 1408,
  "sub": 1409,
  "\u0120Le": 1410,
  "\u0120mov": 1411,
  "over": 1412,
  "\u0120say": 1413,
  "pany": 1414,
  "\u0120ter": 1415,
  "head": 1416,
  "rg": 1417,
  "This": 1418,
  ".\u00e2\u0122\u013f": 1419,
  "\u0120But": 1420,
  "loy": 1421,
  "sg": 1422,
  "ced": 1423,
  "db": 1424,
  "icle": 1425,
  "Prop": 1426,
  "\u0120All": 1427,
  "els": 1428,
  "box": 1429,
  "\u0120To": 1430,
  "iter": 1431,
  "Sh": 1432,
  "come": 1433,
  "\u0120sw": 1434,
  "\u0109for": 1435,
  "bl": 1436,
  "ape": 1437,
  "\u0120und": 1438,
  "ags": 1439,
  "US": 1440,
  "PO": 1441,
  "\u0120sol": 1442,
  "\u0120===": 1443,
  "akes": 1444,
  "\u0120ref": 1445,
  "ever": 1446,
  "\u0120So": 1447,
  "med": 1448,
  "\u0120cap": 1449,
  "\u0120rep": 1450,
  "ved": 1451,
  "api": 1452,
  "OD": 1453,
  "iven": 1454,
  "oto": 1455,
  "\u00e2\u0122\u013e": 1456,
  "col": 1457,
  "ght": 1458,
  "Code": 1459,
  "link": 1460,
  "An": 1461,
  "\u0109int": 1462,
  "ift": 1463,
  "ness": 1464,
  "\u0120fam": 1465,
  "\u0120nil": 1466,
  "utes": 1467,
  "atab": 1468,
  "\u0120vis": 1469,
  "\u0120AN": 1470,
  "Al": 1471,
  "CE": 1472,
  "irt": 1473,
  "\u00d0\u00bd": 1474,
  "\u0109m": 1475,
  "ond": 1476,
  "\u0120ret": 1477,
  "args": 1478,
  "oci": 1479,
  "Pl": 1480,
  "As": 1481,
  "ret": 1482,
  "ado": 1483,
  "Of": 1484,
  "chn": 1485,
  "\u0120Get": 1486,
  "ee": 1487,
  "ross": 1488,
  "It": 1489,
  "oute": 1490,
  "www": 1491,
  "\u0120\u00c2": 1492,
  "size": 1493,
  "ism": 1494,
  "ai": 1495,
  "ane": 1496,
  "\u0120beg": 1497,
  "CH": 1498,
  "hip": 1499,
  "no": 1500,
  "core": 1501,
  "sp": 1502,
  "\u0120Me": 1503,
  "\u0120Is": 1504,
  "\u0120ca": 1505,
  "App": 1506,
  "\u0120dep": 1507,
  "tra": 1508,
  "ital": 1509,
  "arm": 1510,
  "iled": 1511,
  "\u0120put": 1512,
  "Qu": 1513,
  "\u00d1\u0122": 1514,
  "ung": 1515,
  "map": 1516,
  "book": 1517,
  "\u00e3\u0123": 1518,
  "Or": 1519,
  "ux": 1520,
  "Log": 1521,
  "post": 1522,
  "Val": 1523,
  "ina": 1524,
  "Add": 1525,
  "ric": 1526,
  ".\"\u010a\u010a": 1527,
  "\u0120fa": 1528,
  "!\u010a\u010a": 1529,
  "ived": 1530,
  "\u00d0\u00be\u00d0": 1531,
  "Map": 1532,
  "UE": 1533,
  "\u0109b": 1534,
  "json": 1535,
  "\u0120too": 1536,
  "cale": 1537,
  "\u00d1\u0123": 1538,
  "ron": 1539,
  "Ent": 1540,
  "ency": 1541,
  "xt": 1542,
  "oy": 1543,
  "bar": 1544,
  "ords": 1545,
  "ln": 1546,
  "({\u010a": 1547,
  "\u0120Ind": 1548,
  "ases": 1549,
  "oh": 1550,
  "Em": 1551,
  "\u0120met": 1552,
  "Test": 1553,
  "\u0120US": 1554,
  "UI": 1555,
  "md": 1556,
  "\u0120[\u010a": 1557,
  "\u0120]": 1558,
  "sw": 1559,
  "ways": 1560,
  "\u0120src": 1561,
  "//\u010a": 1562,
  "\u0120pay": 1563,
  "plit": 1564,
  "\u00e2\u0122\u0136": 1565,
  "obj": 1566,
  "los": 1567,
  "\u0120\u0120\u010a": 1568,
  "Le": 1569,
  "\u00c3\u00a4": 1570,
  "\u0120No": 1571,
  "\u0120old": 1572,
  "bug": 1573,
  "Hand": 1574,
  "};\u010a\u010a": 1575,
  "nect": 1576,
  "Up": 1577,
  "angu": 1578,
  "init": 1579,
  "ero": 1580,
  "\u0120law": 1581,
  "ATE": 1582,
  "tes": 1583,
  "\u0120Pr": 1584,
  "\u0120spe": 1585,
  "ves": 1586,
  "path": 1587,
  "ards": 1588,
  "\u0120Ph": 1589,
  "cur": 1590,
  "imit": 1591,
  "With": 1592,
  "ium": 1593,
  "';\u010a\u010a": 1594,
  "\u0120wom": 1595,
  "left": 1596,
  "atri": 1597,
  "\u0120Im": 1598,
  "\u0120Man": 1599,
  "orth": 1600,
  "ese": 1601,
  "\u0120iss": 1602,
  "otal": 1603,
  "ique": 1604,
  "rame": 1605,
  "erg": 1606,
  "TR": 1607,
  "rl": 1608,
  "ons": 1609,
  "anel": 1610,
  "sc": 1611,
  "\u00c3\u00bc": 1612,
  "\u0109\u0109\u010a": 1613,
  "ram": 1614,
  "ched": 1615,
  "())\u010a": 1616,
  "\u0120(\u010a": 1617,
  "\u0120tot": 1618,
  "All": 1619,
  "\u0109var": 1620,
  "\u0120tri": 1621,
  "chem": 1622,
  "my": 1623,
  "\u0120big": 1624,
  "\u0120Ad": 1625,
  "\u0120At": 1626,
  "ots": 1627,
  "num": 1628,
  "Act": 1629,
  "\u0120map": 1630,
  "era": 1631,
  "cope": 1632,
  ",\u00e2\u0122\u013f": 1633,
  "\u0120pop": 1634,
  "\u0120few": 1635,
  "\u0120len": 1636,
  "uid": 1637,
  "ules": 1638,
  "\u00c3\u0143": 1639,
  "\u0120dem": 1640,
  "\u0120ear": 1641,
  "aces": 1642,
  "\u0120Cl": 1643,
  "irc": 1644,
  "};\u010a": 1645,
  "ogle": 1646,
  "\u0120sit": 1647,
  "TE": 1648,
  "NS": 1649,
  "Line": 1650,
  "For": 1651,
  "ior": 1652,
  "\u0120Sc": 1653,
  "\u0120fun": 1654,
  "\u0120},": 1655,
  "ours": 1656,
  "\u0120leg": 1657,
  "iron": 1658,
  "\u0120non": 1659,
  "\u0120los": 1660,
  "resh": 1661,
  "yles": 1662,
  "pi": 1663,
  "uint": 1664,
  "mt": 1665,
  "\u0120Bl": 1666,
  "\u0120...": 1667,
  "open": 1668,
  "\u0120['": 1669,
  "True": 1670,
  "\u0120url": 1671,
  "\u0120Bo": 1672,
  "\u0120red": 1673,
  "js": 1674,
  "\u0120Or": 1675,
  "\u0120\u010d\u010a": 1676,
  "\u0120eas": 1677,
  "]\u010a\u010a": 1678,
  "oney": 1679,
  "AP": 1680,
  "odes": 1681,
  "ply": 1682,
  "HT": 1683,
  "])\u010a": 1684,
  "\u0120ask": 1685,
  "]);\u010a": 1686,
  "ta": 1687,
  "lex": 1688,
  ".,": 1689,
  "\u0120Set": 1690,
  "urch": 1691,
  "ts": 1692,
  "af": 1693,
  "Str": 1694,
  "arse": 1695,
  "ada": 1696,
  "\u0120How": 1697,
  "\u0120*)": 1698,
  "\u0120;": 1699,
  "Ad": 1700,
  "used": 1701,
  "mod": 1702,
  "\u0120np": 1703,
  "ugg": 1704,
  "\u0120/>\u010a": 1705,
  "body": 1706,
  "\u0120cho": 1707,
  "ird": 1708,
  "\u0120>=": 1709,
  "\u0120};\u010a": 1710,
  "You": 1711,
  "ety": 1712,
  "\u0120ide": 1713,
  "\u0120job": 1714,
  "Def": 1715,
  "Not": 1716,
  "oo": 1717,
  "aps": 1718,
  "atur": 1719,
  "\u0120sum": 1720,
  "\u0120fri": 1721,
  "YPE": 1722,
  "eh": 1723,
  "aim": 1724,
  "bool": 1725,
  "\u0120os": 1726,
  "aff": 1727,
  "ERR": 1728,
  "\u0120<=": 1729,
  "\u0120Te": 1730,
  "me": 1731,
  "Out": 1732,
  "Page": 1733,
  "enn": 1734,
  "ML": 1735,
  "ru": 1736,
  "prop": 1737,
  "lean": 1738,
  "If": 1739,
  "vis": 1740,
  "\u0120got": 1741,
  "\u0120Ass": 1742,
  "apt": 1743,
  "ired": 1744,
  "\u0120Add": 1745,
  "ploy": 1746,
  "\u0120der": 1747,
  "\u0120lot": 1748,
  "\u0109d": 1749,
  "\u0120bit": 1750,
  "SON": 1751,
  "ken": 1752,
  "\u0120er": 1753,
  "Ed": 1754,
  "EM": 1755,
  "aut": 1756,
  "ling": 1757,
  "ById": 1758,
  "bed": 1759,
  "\u0120OR": 1760,
  "AME": 1761,
  "oad": 1762,
  "info": 1763,
  "Arg": 1764,
  "pons": 1765,
  "\u0120ver": 1766,
  "lib": 1767,
  "Util": 1768,
  "arge": 1769,
  "\u0120die": 1770,
  "EL": 1771,
  "\u0120})\u010a": 1772,
  "pen": 1773,
  "No": 1774,
  "icro": 1775,
  "\u0120beh": 1776,
  "\u0120'./": 1777,
  "acy": 1778,
  "rec": 1779,
  "\u0109\u0120\u0120\u0120": 1780,
  "\u0120won": 1781,
  "adi": 1782,
  "\u0120gl": 1783,
  "IF": 1784,
  "uted": 1785,
  "\u00e3\u0125": 1786,
  "ari": 1787,
  "ais": 1788,
  "\u0120hum": 1789,
  "ks": 1790,
  "ope": 1791,
  "UM": 1792,
  "uro": 1793,
  "IR": 1794,
  "\u0120row": 1795,
  "\u0120q": 1796,
  "\u0120Not": 1797,
  "ipp": 1798,
  "max": 1799,
  "irl": 1800,
  "\u0120gre": 1801,
  "rist": 1802,
  "ANT": 1803,
  "()\u010a\u010a": 1804,
  "\u0120Be": 1805,
  "\u0120Gr": 1806,
  "PT": 1807,
  "func": 1808,
  ":\u010d\u010a": 1809,
  "\u0120Log": 1810,
  "\u0120),\u010a": 1811,
  "\u0120obj": 1812,
  "inc": 1813,
  "icy": 1814,
  "IZ": 1815,
  "ands": 1816,
  "ably": 1817,
  "\u0120cur": 1818,
  "rect": 1819,
  "irm": 1820,
  "omb": 1821,
  "\u0120\u00e2": 1822,
  "imal": 1823,
  "au": 1824,
  "Url": 1825,
  "ORT": 1826,
  "\u0120Fr": 1827,
  "\u0120Mar": 1828,
  "ODE": 1829,
  "une": 1830,
  "root": 1831,
  "\u0120arr": 1832,
  "len": 1833,
  "page": 1834,
  "\u0120bro": 1835,
  "outh": 1836,
  "pose": 1837,
  "Http": 1838,
  "ava": 1839,
  "web": 1840,
  "opt": 1841,
  "PL": 1842,
  "\u0120\"\\": 1843,
  "null": 1844,
  "\u0120eng": 1845,
  "down": 1846,
  "\u0120En": 1847,
  "\u0120Dr": 1848,
  "\u0120db": 1849,
  "side": 1850,
  "\u0120She": 1851,
  "\u0120ann": 1852,
  "df": 1853,
  "UG": 1854,
  "ILE": 1855,
  "raft": 1856,
  "ffer": 1857,
  "POST": 1858,
  "oud": 1859,
  "\u0120men": 1860,
  "AX": 1861,
  "\u00c3\u00b6": 1862,
  "avig": 1863,
  "req": 1864,
  "});\u010a": 1865,
  "erc": 1866,
  "ilt": 1867,
  "room": 1868,
  "amb": 1869,
  "ike": 1870,
  ":\"": 1871,
  "\u0120Can": 1872,
  "ounc": 1873,
  "do": 1874,
  "\u0120occ": 1875,
  "ze": 1876,
  "\u0120Fl": 1877,
  "attr": 1878,
  "ART": 1879,
  "\u0120da": 1880,
  "etch": 1881,
  "ica": 1882,
  "vers": 1883,
  "\u0120OF": 1884,
  "HER": 1885,
  "egin": 1886,
  "\u0120che": 1887,
  "\u0120My": 1888,
  "ored": 1889,
  "CK": 1890,
  "AY": 1891,
  "\u00e0\u00b8": 1892,
  "ouch": 1893,
  "ama": 1894,
  "(){\u010a": 1895,
  "\u0120ID": 1896,
  "ajor": 1897,
  "And": 1898,
  "\u00d0\u00bb": 1899,
  "\u0120far": 1900,
  "\u0120NS": 1901,
  "\u0120\\\u010a": 1902,
  "uest": 1903,
  "\u0120bas": 1904,
  "echo": 1905,
  "\u0120lib": 1906,
  "\u0120[]": 1907,
  "eb": 1908,
  "OP": 1909,
  "ols": 1910,
  "\u0120**": 1911,
  "ured": 1912,
  "omic": 1913,
  "ips": 1914,
  "\u0120aut": 1915,
  "uit": 1916,
  "\u0120Sp": 1917,
  "IV": 1918,
  "\u0120mus": 1919,
  "iff": 1920,
  "mb": 1921,
  "uk": 1922,
  "Row": 1923,
  "ohn": 1924,
  "alf": 1925,
  "\u0120wr": 1926,
  "way": 1927,
  "Vis": 1928,
  "unk": 1929,
  "UP": 1930,
  "OS": 1931,
  "iod": 1932,
  "\u0120Mon": 1933,
  "\u0120lik": 1934,
  "\u00c3\u00a7": 1935,
  "imer": 1936,
  "izer": 1937,
  "Sub": 1938,
  "\u0120Up": 1939,
  "CL": 1940,
  "URL": 1941,
  "alt": 1942,
  "(),\u010a": 1943,
  "ead": 1944,
  "base": 1945,
  "ones": 1946,
  "\u0120Do": 1947,
  "year": 1948,
  "env": 1949,
  "\u0120imp": 1950,
  "\u0120win": 1951,
  "\u00c3\u00b3n": 1952,
  "\u0120THE": 1953,
  "\u0120<?": 1954,
  "\u0120why": 1955,
  "ij": 1956,
  "ging": 1957,
  "\u0109g": 1958,
  "ley": 1959,
  "\u0120Reg": 1960,
  "unch": 1961,
  "isk": 1962,
  "aper": 1963,
  "\u0120po": 1964,
  "\u0120ant": 1965,
  "\u0120Ed": 1966,
  "\u00c3\u00a3": 1967,
  "\u0120btn": 1968,
  "\u0120enc": 1969,
  "\u0120],\u010a": 1970,
  "\u0120By": 1971,
  "\u0120May": 1972,
  "\u0120Act": 1973,
  "\u00bb\u00bf": 1974,
  "INT": 1975,
  "\u0109p": 1976,
  ".\u010d\u010a": 1977,
  "\u00ef\u00bb\u00bf": 1978,
  "sl": 1979,
  "udio": 1980,
  "\u0120equ": 1981,
  "da": 1982,
  "msg": 1983,
  "\u0120Br": 1984,
  "auth": 1985,
  "only": 1986,
  "\u0109t": 1987,
  "agn": 1988,
  "eral": 1989,
  "rior": 1990,
  "IB": 1991,
  "EX": 1992,
  "\u0120dat": 1993,
  "ued": 1994,
  "\u0120Car": 1995,
  "emp": 1996,
  "\u0120Med": 1997,
  "\u0120pat": 1998,
  "\u0120vi": 1999,
  "*/\u010a": 2000,
  "aged": 2001,
  "Null": 2002,
  "IZE": 2003,
  "/*\u010a": 2004,
  "\u0120Eng": 2005,
  "ixed": 2006,
  "py": 2007,
  "\u0120eff": 2008,
  "ario": 2009,
  "avor": 2010,
  "imum": 2011,
  "oper": 2012,
  "IP": 2013,
  "'),\u010a": 2014,
  "esc": 2015,
  "\";\u010a\u010a": 2016,
  "\u0120Am": 2017,
  "ills": 2018,
  "OW": 2019,
  "ino": 2020,
  "cul": 2021,
  "\u0120\u00ec": 2022,
  "\u0120ben": 2023,
  "\u0120Cal": 2024,
  "\u0120$_": 2025,
  "\u0120Rep": 2026,
  "Sc": 2027,
  "now": 2028,
  "ITY": 2029,
  "vo": 2030,
  "ison": 2031,
  "yc": 2032,
  "\u0120pot": 2033,
  "ides": 2034,
  "rt": 2035,
  "go": 2036,
  "\u0120low": 2037,
  "ury": 2038,
  "roy": 2039,
  "\u0120'/": 2040,
  "\u0120''": 2041,
  "ymb": 2042,
  "Ph": 2043,
  "\u0120adv": 2044,
  "\u0120Ste": 2045,
  "ROM": 2046,
  "ana": 2047,
  "ids": 2048,
  "aken": 2049,
  "\u0120mom": 2050,
  "\u0120\u00e2\u0122\u013a": 2051,
  "\u0120?>": 2052,
  "\u0120den": 2053,
  "ici": 2054,
  "na": 2055,
  "pare": 2056,
  "ocus": 2057,
  "\u0120DE": 2058,
  "\u0120Min": 2059,
  "\u0120opt": 2060,
  "umer": 2061,
  "KE": 2062,
  "then": 2063,
  "\u0120det": 2064,
  "move": 2065,
  "ERT": 2066,
  "\u00e3\u0124": 2067,
  "\u0120Qu": 2068,
  "gle": 2069,
  "\u00c3\u00a3o": 2070,
  "ustr": 2071,
  "\u0120CON": 2072,
  "\u0120IS": 2073,
  "isc": 2074,
  "Bar": 2075,
  "\u0120div": 2076,
  "Be": 2077,
  "ourn": 2078,
  "lem": 2079,
  "abs": 2080,
  "ney": 2081,
  "\u0120exc": 2082,
  "ao": 2083,
  "\u0120++": 2084,
  "ipe": 2085,
  "show": 2086,
  "lev": 2087,
  "rary": 2088,
  "ades": 2089,
  "ause": 2090,
  "\u0120fre": 2091,
  "\u0120'@": 2092,
  "ral": 2093,
  "\u0120fac": 2094,
  "uper": 2095,
  "ias": 2096,
  "BUG": 2097,
  "Reg": 2098,
  "top": 2099,
  "\u0120web": 2100,
  "\u0120dev": 2101,
  "++)\u010a": 2102,
  "\u0120(\"": 2103,
  "\u00e4\u00b8": 2104,
  "sv": 2105,
  "ABLE": 2106,
  "\u0120See": 2107,
  "anch": 2108,
  "leep": 2109,
  "\u0120::": 2110,
  "ptr": 2111,
  "DB": 2112,
  "++;\u010a": 2113,
  "node": 2114,
  "soft": 2115,
  "pond": 2116,
  "Menu": 2117,
  "pg": 2118,
  "})\u010a": 2119,
  "\u0120\"/": 2120,
  "unic": 2121,
  "\u0120aff": 2122,
  "ios": 2123,
  "ULT": 2124,
  "Pr": 2125,
  "\";\u010d\u010a": 2126,
  "uary": 2127,
  "\u0120Co": 2128,
  "SC": 2129,
  "\u0120les": 2130,
  "Grid": 2131,
  "sql": 2132,
  "src": 2133,
  "ony": 2134,
  "umb": 2135,
  ",\u010a\u010a": 2136,
  "ged": 2137,
  "Us": 2138,
  "swer": 2139,
  "most": 2140,
  "sm": 2141,
  "New": 2142,
  "\u0120AND": 2143,
  "()\u010d\u010a": 2144,
  "ilar": 2145,
  "\u0120${": 2146,
  "rypt": 2147,
  "\u0120>>": 2148,
  "\u0120typ": 2149,
  "dev": 2150,
  "AGE": 2151,
  "edit": 2152,
  "QL": 2153,
  "ien": 2154,
  ").\u010a\u010a": 2155,
  "\u0120mar": 2156,
  "\u0120RE": 2157,
  "Cell": 2158,
  "next": 2159,
  "\u0120yet": 2160,
  "atis": 2161,
  "amed": 2162,
  "\u0120+\u010a": 2163,
  "ites": 2164,
  "dr": 2165,
  "\u0120Per": 2166,
  "TH": 2167,
  "\u0120bar": 2168,
  "comm": 2169,
  ")\u010a\u010a\u010a": 2170,
  "\u0120inc": 2171,
  "FA": 2172,
  "ros": 2173,
  "ugin": 2174,
  "fa": 2175,
  "Mode": 2176,
  "\u0120ev": 2177,
  "':\u010a": 2178,
  "\u0120abs": 2179,
  "\u00d0\u00b0\u00d0": 2180,
  "\u0120Pol": 2181,
  "typ": 2182,
  "i\u00c3\u00b3n": 2183,
  "OUT": 2184,
  "iles": 2185,
  "oss": 2186,
  "ilit": 2187,
  "ster": 2188,
  "\u0120\",": 2189,
  "cel": 2190,
  "heet": 2191,
  "\u0109\u0120": 2192,
  "\u0120Ab": 2193,
  "ocal": 2194,
  "\u0120UI": 2195,
  "\u0120buy": 2196,
  "stit": 2197,
  "rops": 2198,
  "CC": 2199,
  "Back": 2200,
  "mail": 2201,
  "\u0120Dec": 2202,
  "\u0120Sub": 2203,
  "\u0120air": 2204,
  "ops": 2205,
  "nav": 2206,
  "End": 2207,
  "\u0120Red": 2208,
  "lin": 2209,
  "}\u010a\u010a\u010a": 2210,
  "\u0120dam": 2211,
  "pend": 2212,
  "dir": 2213,
  "\u0120tax": 2214,
  "reet": 2215,
  "\u0120box": 2216,
  "rel": 2217,
  "\u0120msg": 2218,
  "fect": 2219,
  "je": 2220,
  "istr": 2221,
  "ube": 2222,
  "\u0120ce": 2223,
  "VER": 2224,
  "any": 2225,
  "ctx": 2226,
  "\u0120One": 2227,
  "\u00c4\u00b1": 2228,
  "iple": 2229,
  "aid": 2230,
  "\u00d1\u0125": 2231,
  "byte": 2232,
  "\u0120\u00c3\u0142": 2233,
  "\u00c3\u00a5": 2234,
  "FO": 2235,
  "host": 2236,
  "Init": 2237,
  "GET": 2238,
  "ii": 2239,
  "IO": 2240,
  "\u0120il": 2241,
  "main": 2242,
  "elt": 2243,
  "Rec": 2244,
  "mm": 2245,
  "GL": 2246,
  "cer": 2247,
  "cast": 2248,
  "From": 2249,
  "ales": 2250,
  "ny": 2251,
  "\u0120esc": 2252,
  "\u00ef\u00bc\u012e": 2253,
  "What": 2254,
  "\u0120Fe": 2255,
  "unit": 2256,
  "\u0120-->": 2257,
  "\u0120du": 2258,
  "IST": 2259,
  "fs": 2260,
  "unt": 2261,
  "\u0120mot": 2262,
  "\u0120'<": 2263,
  "\u0120ax": 2264,
  "'];\u010a": 2265,
  "ires": 2266,
  "ught": 2267,
  "tml": 2268,
  "\u0120}}": 2269,
  "\u0120?>\u010a": 2270,
  "Is": 2271,
  "\u0120bad": 2272,
  "\u0120Des": 2273,
  "'\u010a\u010a": 2274,
  "avel": 2275,
  "Fl": 2276,
  "ume": 2277,
  "temp": 2278,
  "Per": 2279,
  "iet": 2280,
  "\u0120Def": 2281,
  "\u0120ge": 2282,
  "eme": 2283,
  "uly": 2284,
  "auto": 2285,
  "find": 2286,
  "btn": 2287,
  "\u0120ey": 2288,
  "ARR": 2289,
  "ALL": 2290,
  "ili": 2291,
  "yl": 2292,
  "OK": 2293,
  "NU": 2294,
  "rest": 2295,
  "\u0120ST": 2296,
  "\u0120cut": 2297,
  "():\u010a": 2298,
  "\u0120cou": 2299,
  "ogn": 2300,
  "ival": 2301,
  "Link": 2302,
  "NE": 2303,
  "Ref": 2304,
  "olve": 2305,
  "ico": 2306,
  "\u0120ess": 2307,
  "\u0120\u00c3\u00a9": 2308,
  "ball": 2309,
  "Var": 2310,
  "LECT": 2311,
  "One": 2312,
  "pha": 2313,
  "\u0120~": 2314,
  "fort": 2315,
  "\u0120End": 2316,
  "AND": 2317,
  "Base": 2318,
  "INE": 2319,
  "But": 2320,
  "\u0120El": 2321,
  "\u0120Us": 2322,
  "mark": 2323,
  "`\u010a": 2324,
  "amic": 2325,
  "pc": 2326,
  "loor": 2327,
  "FT": 2328,
  "\u0120opp": 2329,
  "cket": 2330,
  "tx": 2331,
  "\u0120pur": 2332,
  "uel": 2333,
  "aise": 2334,
  "\u0120hot": 2335,
  "ries": 2336,
  "adio": 2337,
  "font": 2338,
  "ACK": 2339,
  "\u0120=\u010a": 2340,
  "Edit": 2341,
  "anks": 2342,
  "\u0120\"<": 2343,
  "ised": 2344,
  "met": 2345,
  "see": 2346,
  "\u0120EX": 2347,
  "None": 2348,
  "ASE": 2349,
  "\u0120Rec": 2350,
  "\u0120vo": 2351,
  "uy": 2352,
  "\u0120dig": 2353,
  "hr": 2354,
  "\u0120gen": 2355,
  "vec": 2356,
  "LL": 2357,
  "\u0120ste": 2358,
  "\u0120Dis": 2359,
  "\u0120wor": 2360,
  "rag": 2361,
  "\u00c2\u0142": 2362,
  "DD": 2363,
  "\u0120Val": 2364,
  "Eng": 2365,
  "aign": 2366,
  "aur": 2367,
  "\u0120Off": 2368,
  "\u0120war": 2369,
  "Args": 2370,
  "Ob": 2371,
  "ams": 2372,
  "joy": 2373,
  "xy": 2374,
  "\u0120sn": 2375,
  "\u0120inf": 2376,
  "Post": 2377,
  "\u0120ago": 2378,
  "\u0120ANY": 2379,
  "aved": 2380,
  "\u00e2\u0122\u0135": 2381,
  "\u0120fig": 2382,
  "xx": 2383,
  "\u0120Dep": 2384,
  "ITH": 2385,
  "\u0120due": 2386,
  "\u0120por": 2387,
  "\u0120ep": 2388,
  "tern": 2389,
  "clus": 2390,
  "\u0120/**": 2391,
  "\u0120[]\u010a": 2392,
  "nown": 2393,
  "\u0120vot": 2394,
  "\u0120tmp": 2395,
  "\u00d0\u00b5\u00d0": 2396,
  "ural": 2397,
  "\u0120net": 2398,
  "\u0120Ne": 2399,
  "\u0120NOT": 2400,
  "\u0120neg": 2401,
  "ges": 2402,
  "oom": 2403,
  ".\u010a\u010a\u010a": 2404,
  "erm": 2405,
  "with": 2406,
  "TER": 2407,
  "\u0120hit": 2408,
  "grid": 2409,
  "ria": 2410,
  "Case": 2411,
  "\u0120\"\"\"": 2412,
  "atal": 2413,
  "ocr": 2414,
  "edef": 2415,
  "\u0120deb": 2416,
  "ha": 2417,
  "\u0120Ge": 2418,
  "\u0120age": 2419,
  "\u0120req": 2420,
  "OST": 2421,
  "\u00d1\u0131": 2422,
  "TP": 2423,
  "ows": 2424,
  "dis": 2425,
  "zy": 2426,
  "\u00e2\u0122\u013bm": 2427,
  "just": 2428,
  "\u0120GNU": 2429,
  "\u0120Col": 2430,
  "{\u010a\u010a": 2431,
  "\u0120tre": 2432,
  "last": 2433,
  "la": 2434,
  "Lo": 2435,
  "\u0120God": 2436,
  "rew": 2437,
  "\u0120Par": 2438,
  "Par": 2439,
  "\u0120sal": 2440,
  "ORD": 2441,
  "vas": 2442,
  "ua": 2443,
  "esh": 2444,
  ").\u010a": 2445,
  "RI": 2446,
  "por": 2447,
  "\u0120mor": 2448,
  "oder": 2449,
  "\u0120na": 2450,
  "\u0120[[": 2451,
  "\u0120('": 2452,
  "\u0120Don": 2453,
  "ERS": 2454,
  "abor": 2455,
  "ato": 2456,
  "\u0120ur": 2457,
  "How": 2458,
  "\u0120pie": 2459,
  "\u0120Jan": 2460,
  "za": 2461,
  "rief": 2462,
  "ORM": 2463,
  "\u0120ein": 2464,
  "gen": 2465,
  "\u0120Out": 2466,
  "\u0120!==": 2467,
  "'],\u010a": 2468,
  "\u0120[\"": 2469,
  "\u0120tw": 2470,
  "cd": 2471,
  "\u0120;\u010a": 2472,
  "\u0120Sm": 2473,
  "))\u010a\u010a": 2474,
  "prot": 2475,
  "\u0120Mr": 2476,
  "Icon": 2477,
  "\u0120vol": 2478,
  "\u0120si": 2479,
  "medi": 2480,
  "ving": 2481,
  "PP": 2482,
  "aker": 2483,
  "ns": 2484,
  "omet": 2485,
  "Rect": 2486,
  "So": 2487,
  "Read": 2488,
  "cret": 2489,
  "\">\u010d\u010a": 2490,
  "']\u010a": 2491,
  "\u0120TH": 2492,
  "aced": 2493,
  "\u0120isn": 2494,
  "\u0120son": 2495,
  "reen": 2496,
  "\u0120um": 2497,
  "\u0120\\<": 2498,
  "ysis": 2499,
  "Down": 2500,
  "\u00c3\u00a8": 2501,
  "Mod": 2502,
  "\"),\u010a": 2503,
  "\u0120Cor": 2504,
  "ODO": 2505,
  "\u0120Sim": 2506,
  "plot": 2507,
  "\u0109\u010d\u010a": 2508,
  "acc": 2509,
  "ARE": 2510,
  "part": 2511,
  "\u0120sus": 2512,
  "wise": 2513,
  "\u0120Mc": 2514,
  "ATA": 2515,
  "ried": 2516,
  "weet": 2517,
  "bit": 2518,
  "ided": 2519,
  "VE": 2520,
  "\u0120Sw": 2521,
  "UB": 2522,
  "edia": 2523,
  "When": 2524,
  "peed": 2525,
  "\u0120Str": 2526,
  "\u0120py": 2527,
  "\u0120obt": 2528,
  "ille": 2529,
  "\u0120Sec": 2530,
  "URE": 2531,
  "emy": 2532,
  "\u0120mo": 2533,
  "ocol": 2534,
  "rodu": 2535,
  "\u00d1\u012d": 2536,
  "\u0120Cr": 2537,
  "ka": 2538,
  "lood": 2539,
  "\u0109\u0109\u0109\u010a": 2540,
  "rip": 2541,
  "Unit": 2542,
  "\u0120via": 2543,
  "\u0120lim": 2544,
  "\u0120Gu": 2545,
  "\u0120ens": 2546,
  "HERE": 2547,
  "NULL": 2548,
  "gy": 2549,
  "tag": 2550,
  "exp": 2551,
  "thon": 2552,
  "ores": 2553,
  "SP": 2554,
  "\u0120\u00e2\u0122\u00a6": 2555,
  "\u00c5\u0124": 2556,
  "Off": 2557,
  "\u0120Ag": 2558,
  "asks": 2559,
  "\u0120(*": 2560,
  "')\u010a\u010a": 2561,
  "rap": 2562,
  "\u0120FOR": 2563,
  "cat": 2564,
  "stry": 2565,
  "boot": 2566,
  "\u0120Nov": 2567,
  "\u0120doc": 2568,
  "IGHT": 2569,
  "ceed": 2570,
  "\"/>\u010a": 2571,
  "rot": 2572,
  "oe": 2573,
  "ba": 2574,
  "has": 2575,
  "Num": 2576,
  "UD": 2577,
  "\u0120Ob": 2578,
  "lim": 2579,
  "\":\u010a": 2580,
  "ague": 2581,
  "orig": 2582,
  "cp": 2583,
  "pat": 2584,
  "BO": 2585,
  "ighb": 2586,
  "\u0120{}": 2587,
  "END": 2588,
  "aves": 2589,
  "\u0120Now": 2590,
  "Pre": 2591,
  "\u0120mer": 2592,
  "\u0120\u010a\u010a": 2593,
  "net": 2594,
  "\u0120Bar": 2595,
  "\u0120dom": 2596,
  "airs": 2597,
  "wner": 2598,
  "\",\u010d\u010a": 2599,
  "\u0120Dem": 2600,
  "\u0120ps": 2601,
  "RL": 2602,
  "ls": 2603,
  "uge": 2604,
  "ech": 2605,
  "ief": 2606,
  "oke": 2607,
  "\u0120six": 2608,
  "ida": 2609,
  "ald": 2610,
  "pack": 2611,
  "lice": 2612,
  "izes": 2613,
  "lege": 2614,
  "\u0120je": 2615,
  "\u0120cas": 2616,
  "utf": 2617,
  "Char": 2618,
  "\u0120tag": 2619,
  "opp": 2620,
  "uses": 2621,
  "KEY": 2622,
  "osp": 2623,
  "ello": 2624,
  "That": 2625,
  "\u00d0\u00ba": 2626,
  "\u0120alt": 2627,
  "area": 2628,
  "like": 2629,
  "yy": 2630,
  "irth": 2631,
  "\u0120seg": 2632,
  "\u00e6\u013e": 2633,
  "\u0120hor": 2634,
  "iers": 2635,
  "can": 2636,
  "fg": 2637,
  "\u0120Sk": 2638,
  "];\u010a\u010a": 2639,
  "\u00d1\u012e": 2640,
  "long": 2641,
  "MS": 2642,
  "ATH": 2643,
  "rown": 2644,
  "utor": 2645,
  "lt": 2646,
  "MA": 2647,
  "cs": 2648,
  "semb": 2649,
  "Dis": 2650,
  "\u0120bed": 2651,
  "\u0120Inc": 2652,
  "Each": 2653,
  "\u0120har": 2654,
  "Pos": 2655,
  "\u0120Ent": 2656,
  "icht": 2657,
  "Game": 2658,
  "PC": 2659,
  "nes": 2660,
  "}>\u010a": 2661,
  "\u0120mag": 2662,
  "ando": 2663,
  "sk": 2664,
  "\u0120\u00e5": 2665,
  "\u0120Rob": 2666,
  "\u0120imm": 2667,
  "!\u010a": 2668,
  "\u0120Web": 2669,
  "Des": 2670,
  "BC": 2671,
  "Dec": 2672,
  "ctor": 2673,
  "gn": 2674,
  "ises": 2675,
  "\u0120Oct": 2676,
  "sets": 2677,
  "Bl": 2678,
  "\u0120Rem": 2679,
  "\u0120Aug": 2680,
  "\u0120La": 2681,
  "\u0120$(": 2682,
  "iam": 2683,
  "ASS": 2684,
  "\u0120Of": 2685,
  "oved": 2686,
  "ante": 2687,
  "aul": 2688,
  "\u0120fit": 2689,
  "card": 2690,
  "och": 2691,
  "#\u010a": 2692,
  "\u0120img": 2693,
  "flow": 2694,
  "\u0120Pre": 2695,
  "ners": 2696,
  "\u00e1\u00bb": 2697,
  "ture": 2698,
  "dest": 2699,
  "\u0120TR": 2700,
  "iful": 2701,
  "term": 2702,
  "\u0120etc": 2703,
  "\u0120fem": 2704,
  "hs": 2705,
  "\u0120hom": 2706,
  "Open": 2707,
  "\u0120War": 2708,
  "iqu": 2709,
  "PS": 2710,
  "Json": 2711,
  "\u0120Sch": 2712,
  "\u0120LO": 2713,
  "sec": 2714,
  "\u0120Map": 2715,
  "aset": 2716,
  "\"\u010d\u010a": 2717,
  "ndef": 2718,
  "OUN": 2719,
  "ters": 2720,
  "\u0120fix": 2721,
  "CA": 2722,
  "My": 2723,
  "\u0120SE": 2724,
  "alle": 2725,
  "ara": 2726,
  "asc": 2727,
  "\u0120\u00d0\u00bf": 2728,
  "Cl": 2729,
  "aily": 2730,
  "late": 2731,
  "\u0120Apr": 2732,
  "cr": 2733,
  "Auth": 2734,
  "\u0120una": 2735,
  "PORT": 2736,
  "\u0120mid": 2737,
  "\u0120dim": 2738,
  "home": 2739,
  "ev": 2740,
  "\u00ef\u00bc\u013c": 2741,
  "\u0120)\u010a\u010a": 2742,
  "oph": 2743,
  "\")\u010a\u010a": 2744,
  "ox": 2745,
  "\u0120]\u010a": 2746,
  "\u0120Pe": 2747,
  "\u0120\u00eb": 2748,
  "\u0120las": 2749,
  "css": 2750,
  "\u0120TO": 2751,
  "conn": 2752,
  "\u00c4\u013b": 2753,
  "how": 2754,
  "\u0120veh": 2755,
  "\u0120Art": 2756,
  "\u0120fn": 2757,
  "ango": 2758,
  "tmp": 2759,
  "EST": 2760,
  "gt": 2761,
  "den": 2762,
  "\u00c3\u00bcr": 2763,
  "pm": 2764,
  "\u0120EN": 2765,
  "olid": 2766,
  "\u0109v": 2767,
  "\u0120'\\": 2768,
  "uz": 2769,
  "\u0120\"$": 2770,
  "lang": 2771,
  "\u0120mut": 2772,
  "TO": 2773,
  "\u0120ve": 2774,
  ";\u010a\u010a\u010a": 2775,
  "\u0120{\"": 2776,
  "rea": 2777,
  "ANG": 2778,
  "\u0120ign": 2779,
  "\u0120Id": 2780,
  "ONE": 2781,
  "\u0120Har": 2782,
  "\u0120Ap": 2783,
  "igr": 2784,
  "\u0120sem": 2785,
  "doc": 2786,
  "\u0120..": 2787,
  "\u0120van": 2788,
  "IND": 2789,
  "CESS": 2790,
  "ido": 2791,
  "\u0120deg": 2792,
  "\u00d0\u00b5\u00d0\u00bd": 2793,
  "\u0120HT": 2794,
  "Obj": 2795,
  "DF": 2796,
  "?\u010a": 2797,
  "ship": 2798,
  "aven": 2799,
  "\u0120bre": 2800,
  "\u0120clo": 2801,
  "etic": 2802,
  "\u0120His": 2803,
  "aa": 2804,
  "ean": 2805,
  "\u0120PRO": 2806,
  "\u0120Key": 2807,
  "ming": 2808,
  "\u0120.=": 2809,
  "MENT": 2810,
  "cape": 2811,
  "\u0120Mus": 2812,
  "\u0120API": 2813,
  "foot": 2814,
  "endl": 2815,
  "ste": 2816,
  "\u0120Dav": 2817,
  "Ptr": 2818,
  "RT": 2819,
  "\u0120Py": 2820,
  "ds": 2821,
  "apan": 2822,
  "\u0120{'": 2823,
  "\u0120Sen": 2824,
  "ador": 2825,
  "Top": 2826,
  "po": 2827,
  "IES": 2828,
  "JSON": 2829,
  "IE": 2830,
  "iant": 2831,
  "\u00e3\u0122\u0123": 2832,
  "bum": 2833,
  "ians": 2834,
  "GB": 2835,
  "Core": 2836,
  "\u0120ok": 2837,
  "IX": 2838,
  "\u00c3\u00a9s": 2839,
  "erry": 2840,
  "ares": 2841,
  "Do": 2842,
  "\u0120\u00d1\u0123": 2843,
  "Left": 2844,
  "cal": 2845,
  "bsp": 2846,
  "\u0120dir": 2847,
  "\")]\u010a": 2848,
  "rs": 2849,
  "\u0120sil": 2850,
  "\u0120cmd": 2851,
  "\u0120Use": 2852,
  "Body": 2853,
  "Font": 2854,
  "llum": 2855,
  "ycle": 2856,
  "\u0120mit": 2857,
  "\u0120(_": 2858,
  "\"))\u010a": 2859,
  "UC": 2860,
  "chie": 2861,
  "fin": 2862,
  "\u00d0\u00b2": 2863,
  "obs": 2864,
  "oub": 2865,
  "\u0120saw": 2866,
  "ICE": 2867,
  "meta": 2868,
  "SD": 2869,
  "Oper": 2870,
  "\u00c3\u00aa": 2871,
  "\u00e0\u00a4": 2872,
  "ees": 2873,
  "\u0120mat": 2874,
  "azon": 2875,
  "lat": 2876,
  "aste": 2877,
  "rote": 2878,
  "omy": 2879,
  "\u0120saf": 2880,
  "II": 2881,
  "\u0120cv": 2882,
  "\u0120URL": 2883,
  "',\u010d\u010a": 2884,
  "ados": 2885,
  "urg": 2886,
  "ani": 2887,
  "\u0120dog": 2888,
  ")]\u010a": 2889,
  "\u00ef\u00bf": 2890,
  "pir": 2891,
  "tt": 2892,
  "ACE": 2893,
  "ja": 2894,
  "alls": 2895,
  "pu": 2896,
  "\u0120GL": 2897,
  "\u0120oil": 2898,
  "VAL": 2899,
  "QUE": 2900,
  "\u0120ful": 2901,
  "dom": 2902,
  "ham": 2903,
  "ula": 2904,
  "RA": 2905,
  "mar": 2906,
  "\u0120{}\u010a": 2907,
  "Ass": 2908,
  "vey": 2909,
  "*\u010a": 2910,
  "lier": 2911,
  "DC": 2912,
  "\u0120SO": 2913,
  "gor": 2914,
  "\u0120Our": 2915,
  "\u0120ctx": 2916,
  "case": 2917,
  "urt": 2918,
  "ych": 2919,
  "afe": 2920,
  "\u0120Fin": 2921,
  "\u0120Mod": 2922,
  "\u0120tab": 2923,
  "ano": 2924,
  "\u00c3\u00b1": 2925,
  "chan": 2926,
  "IME": 2927,
  "\\\u010a": 2928,
  "avy": 2929,
  "\u0120NO": 2930,
  "Tag": 2931,
  "\u0120ren": 2932,
  "nbsp": 2933,
  "men": 2934,
  "zen": 2935,
  "\u0120tor": 2936,
  "\u0120Lib": 2937,
  "comp": 2938,
  "ura": 2939,
  "\u00ef\u00bf\u00bd": 2940,
  "hood": 2941,
  "\u0120sch": 2942,
  "\u0120sec": 2943,
  "\u00d8\u00a7": 2944,
  "\u0120sql": 2945,
  "\u0120sys": 2946,
  "agma": 2947,
  "\u0120Sy": 2948,
  "ALSE": 2949,
  "EXT": 2950,
  "oly": 2951,
  "\u0120jud": 2952,
  "ims": 2953,
  "fix": 2954,
  "\u0120Em": 2955,
  "\u0120rot": 2956,
  "\u0120pen": 2957,
  "\u0120AS": 2958,
  "QU": 2959,
  "\u00e5\u0131": 2960,
  "\u00c2\u0143": 2961,
  "\u0120Any": 2962,
  "iler": 2963,
  "Card": 2964,
  "\u0120rev": 2965,
  "aly": 2966,
  "role": 2967,
  "\u0120ten": 2968,
  "MP": 2969,
  "):\u010d\u010a": 2970,
  "))\u010d\u010a": 2971,
  "\u0120mis": 2972,
  "icks": 2973,
  "CON": 2974,
  "des": 2975,
  "Part": 2976,
  "hib": 2977,
  "game": 2978,
  "\u0120\u00d0\u00b2": 2979,
  "\u0120inj": 2980,
  "\u0120sou": 2981,
  "\u0120bus": 2982,
  "Ab": 2983,
  "\u0120hon": 2984,
  "HTML": 2985,
  "\u0120San": 2986,
  "aled": 2987,
  "kt": 2988,
  "Last": 2989,
  "adow": 2990,
  "idad": 2991,
  "Next": 2992,
  "xf": 2993,
  "\u0120PM": 2994,
  "erve": 2995,
  "ci": 2996,
  "gs": 2997,
  "\u00c4\u0127": 2998,
  "\u0120ill": 2999,
  "IA": 3000,
  "DO": 3001,
  "\u0120{{": 3002,
  "\u0120\"#": 3003,
  "\u0120\u0120\u0120\u010a": 3004,
  "cell": 3005,
  "\u0120'#": 3006,
  "Load": 3007,
  "ORE": 3008,
  "\u0120TV": 3009,
  "SET": 3010,
  "inq": 3011,
  "ael": 3012,
  "/\u010a": 3013,
  "\u00ec\u013f": 3014,
  "\u0120Bro": 3015,
  "\u0120ou": 3016,
  "buf": 3017,
  "dat": 3018,
  "ae": 3019,
  "ober": 3020,
  "\u0120\"./": 3021,
  "\u010d\u010d\u010a": 3022,
  ")))\u010a": 3023,
  "\u0120\".": 3024,
  "ECT": 3025,
  "DS": 3026,
  "ixel": 3027,
  "\u00c5\u00bc": 3028,
  "\u0120DB": 3029,
  "\u00e6\u0139": 3030,
  "];\u010d\u010a": 3031,
  "\u0120\"%": 3032,
  "ris": 3033,
  "elta": 3034,
  "AIL": 3035,
  "){\u010d\u010a": 3036,
  "mine": 3037,
  "bon": 3038,
  "asic": 3039,
  "pite": 3040,
  "Max": 3041,
  "Web": 3042,
  "\u0120-=": 3043,
  "join": 3044,
  "ITE": 3045,
  "?>\u010a": 3046,
  "\u0120Go": 3047,
  "REF": 3048,
  "\u0120ip": 3049,
  "\u0120ist": 3050,
  "odo": 3051,
  "cor": 3052,
  "\u0120ord": 3053,
  "came": 3054,
  "\u00d1\u0129": 3055,
  "hi": 3056,
  "AA": 3057,
  "\u0120bi": 3058,
  "Red": 3059,
  "\u0120gun": 3060,
  "onth": 3061,
  "\u0120Dev": 3062,
  "FILE": 3063,
  "sert": 3064,
  "\u0120Mo": 3065,
  "ala": 3066,
  "\u0120hab": 3067,
  "\u0120Day": 3068,
  "\")\u010d\u010a": 3069,
  "uple": 3070,
  "menu": 3071,
  "bb": 3072,
  "\u0120led": 3073,
  "uri": 3074,
  "gl": 3075,
  "MD": 3076,
  "ota": 3077,
  "Am": 3078,
  "Vert": 3079,
  "cout": 3080,
  "\u0120env": 3081,
  "\u0120>\u010a": 3082,
  "run": 3083,
  "agon": 3084,
  "]\u010d\u010a": 3085,
  "aby": 3086,
  "Fe": 3087,
  "\u0120sen": 3088,
  "cing": 3089,
  "FL": 3090,
  "Col": 3091,
  "uts": 3092,
  "inn": 3093,
  "conf": 3094,
  "\u0120aud": 3095,
  "NG": 3096,
  "\u00e4\u00bb": 3097,
  "XX": 3098,
  "chor": 3099,
  "\u00c3\u00b8": 3100,
  "\u0120CG": 3101,
  "ho": 3102,
  "\u0120cop": 3103,
  "\u0120Big": 3104,
  "\u0120vs": 3105,
  "\u0120inn": 3106,
  "ools": 3107,
  "ycl": 3108,
  "olt": 3109,
  "Dir": 3110,
  "\u0120une": 3111,
  "avi": 3112,
  "tab": 3113,
  "rael": 3114,
  "\u0120ON": 3115,
  "rics": 3116,
  "np": 3117,
  "Main": 3118,
  "\u0109\u0109\u010d\u010a": 3119,
  "\u0120/>": 3120,
  "IAL": 3121,
  "ails": 3122,
  "*/\u010a\u010a": 3123,
  "\u0120Met": 3124,
  "addr": 3125,
  "ora": 3126,
  "\u0120ir": 3127,
  "Min": 3128,
  "PUT": 3129,
  "haps": 3130,
  "cm": 3131,
  "\u0120\"\u010a": 3132,
  "ivil": 3133,
  "inue": 3134,
  "ums": 3135,
  "illa": 3136,
  "tk": 3137,
  "\u0109end": 3138,
  "\u0120Ver": 3139,
  "\u0120Her": 3140,
  "cons": 3141,
  "ita": 3142,
  "\u0120'.": 3143,
  "{}": 3144,
  "\u0109C": 3145,
  "\u0120:\u010a": 3146,
  "\u0120AR": 3147,
  "Task": 3148,
  "eros": 3149,
  "IGN": 3150,
  "atio": 3151,
  "\u0120=>\u010a": 3152,
  "\u0120hy": 3153,
  "fit": 3154,
  "non": 3155,
  "hold": 3156,
  "rim": 3157,
  "oday": 3158,
  "uate": 3159,
  "otes": 3160,
  "omen": 3161,
  "\u0120Sup": 3162,
  "ago": 3163,
  "\u0120^": 3164,
  "inst": 3165,
  "enge": 3166,
  "\u00ef\u00bc\u0123": 3167,
  "ueue": 3168,
  "//\u010a\u010a": 3169,
  "si": 3170,
  "PU": 3171,
  "ovie": 3172,
  "\u0120nor": 3173,
  "\u0120api": 3174,
  "bot": 3175,
  "\"];\u010a": 3176,
  "PIO": 3177,
  "ione": 3178,
  "shot": 3179,
  "AST": 3180,
  "DA": 3181,
  "mo": 3182,
  "ito": 3183,
  "idx": 3184,
  "\u00c3\u0142": 3185,
  "ongo": 3186,
  "ENSE": 3187,
  "\u0120pas": 3188,
  "Hash": 3189,
  "FIG": 3190,
  "thes": 3191,
  "wd": 3192,
  "awn": 3193,
  "\u0120Ac": 3194,
  "impl": 3195,
  "more": 3196,
  "pass": 3197,
  "\u0120ha": 3198,
  "FFFF": 3199,
  "atar": 3200,
  "\u0120zu": 3201,
  "\u0120io": 3202,
  "hest": 3203,
  "asy": 3204,
  "Sp": 3205,
  "NT": 3206,
  "\u0120tf": 3207,
  "CS": 3208,
  "\u0120})": 3209,
  "\u0120{@": 3210,
  "\u0120UK": 3211,
  "\u0120IO": 3212,
  "\u0120Afr": 3213,
  "igen": 3214,
  "\u0120SH": 3215,
  "ells": 3216,
  "iny": 3217,
  "\u00d0\u00bc": 3218,
  "eff": 3219,
  "cha": 3220,
  "USER": 3221,
  "\u0120Run": 3222,
  "\u0120ang": 3223,
  "xml": 3224,
  "UID": 3225,
  "Gr": 3226,
  "\u0120//\u010a": 3227,
  "idge": 3228,
  "PR": 3229,
  "CD": 3230,
  "\u0120Lo": 3231,
  "ibly": 3232,
  "ooth": 3233,
  "iate": 3234,
  "\u0120Bit": 3235,
  "ivo": 3236,
  "rd": 3237,
  "HECK": 3238,
  "RED": 3239,
  "argv": 3240,
  "\u0120Rel": 3241,
  "\u0120mix": 3242,
  "\u0120plt": 3243,
  "\u0120IM": 3244,
  "\u00e1\u00ba": 3245,
  "\u0120Wed": 3246,
  "\u0120\"-": 3247,
  "Tree": 3248,
  "ette": 3249,
  "IVE": 3250,
  "\u0120von": 3251,
  "\u0120cit": 3252,
  "tee": 3253,
  "\u0120Air": 3254,
  ")){\u010a": 3255,
  "\u0120&&\u010a": 3256,
  "Api": 3257,
  "\u00e5\u012a": 3258,
  "ted": 3259,
  "wer": 3260,
  "\u0120\u00e6": 3261,
  "\u0120sy": 3262,
  "\u0120Ke": 3263,
  "\u00e5\u0127": 3264,
  "ancy": 3265,
  "ran": 3266,
  "El": 3267,
  "Long": 3268,
  "rupt": 3269,
  "va": 3270,
  "Rem": 3271,
  "ini": 3272,
  "\u0120cam": 3273,
  "REE": 3274,
  "pa": 3275,
  "ATUS": 3276,
  "\u00d1\u0123\u00d1\u0124": 3277,
  "sequ": 3278,
  "\u00e8\u00af": 3279,
  "\u0120buf": 3280,
  "Ke": 3281,
  "\u0120nov": 3282,
  "HP": 3283,
  "Msg": 3284,
  "\u0120',": 3285,
  "\u0120das": 3286,
  "rial": 3287,
  ")[": 3288,
  "save": 3289,
  "\u0120\"+": 3290,
  "INFO": 3291,
  "Te": 3292,
  "ki": 3293,
  "\u0120UN": 3294,
  "rome": 3295,
  "lay": 3296,
  "\u00c3\u00ba": 3297,
  "call": 3298,
  "wood": 3299,
  "imp": 3300,
  "STR": 3301,
  "\u00e2\u0122\u00a2": 3302,
  "orge": 3303,
  "\u0120PC": 3304,
  "\u0120pub": 3305,
  "\u0120fra": 3306,
  "send": 3307,
  "\u00e4\u00ba": 3308,
  "SQL": 3309,
  "\u0109w": 3310,
  "\u0120Sex": 3311,
  "none": 3312,
  "\u00c4\u0125": 3313,
  "\u0120\u00d0\u00bd": 3314,
  "elle": 3315,
  "Can": 3316,
  "\u00d0\u00be\u00d0\u00b2": 3317,
  "ngth": 3318,
  "drop": 3319,
  "arty": 3320,
  "ona": 3321,
  "\u0109log": 3322,
  "emo": 3323,
  "Run": 3324,
  "oi": 3325,
  ">\";\u010a": 3326,
  "\u0109std": 3327,
  "oded": 3328,
  "here": 3329,
  "Rel": 3330,
  "ga": 3331,
  "\u0120ing": 3332,
  "umpy": 3333,
  "\u0120pet": 3334,
  "FC": 3335,
  "\u0120Ant": 3336,
  "Ext": 3337,
  "ened": 3338,
  "grad": 3339,
  "EO": 3340,
  "\u0120.\u010a\u010a": 3341,
  "\u0120df": 3342,
  "eds": 3343,
  "\u0120AM": 3344,
  "\u0120Let": 3345,
  "lich": 3346,
  "\u0120arm": 3347,
  "Work": 3348,
  "\u0120syn": 3349,
  "VENT": 3350,
  "\u0120IP": 3351,
  "OUR": 3352,
  "\u0120tim": 3353,
  "\u0109try": 3354,
  "\u0120Ear": 3355,
  "ente": 3356,
  "\u0120gas": 3357,
  "ACT": 3358,
  "\u0120CH": 3359,
  "Br": 3360,
  "AIN": 3361,
  "ella": 3362,
  "\u0120lat": 3363,
  "ban": 3364,
  "\u0120Sl": 3365,
  "sort": 3366,
  "nap": 3367,
  "pet": 3368,
  "bin": 3369,
  "They": 3370,
  "\u0120Mat": 3371,
  "\u0120cu": 3372,
  "ped": 3373,
  "\u0120pow": 3374,
  "\u0120Mag": 3375,
  "\u0120),": 3376,
  "elay": 3377,
  "mas": 3378,
  "fd": 3379,
  "\u0120);": 3380,
  "qli": 3381,
  "irit": 3382,
  "oman": 3383,
  "\u0120Top": 3384,
  "-\u010a": 3385,
  "car": 3386,
  "pper": 3387,
  "pped": 3388,
  "\u00e2\u0122\u013bd": 3389,
  "make": 3390,
  "\u0120\u00c2\u00a3": 3391,
  "oms": 3392,
  "ipo": 3393,
  "\u00d0\u00b4": 3394,
  "Ar": 3395,
  "Net": 3396,
  ")),\u010a": 3397,
  "ding": 3398,
  "gest": 3399,
  "\u0120dro": 3400,
  "\u0120uns": 3401,
  "\u0120CL": 3402,
  "mut": 3403,
  "Did": 3404,
  "'))\u010a": 3405,
  "\u0120js": 3406,
  "ih": 3407,
  "sem": 3408,
  "\u0109r": 3409,
  "RES": 3410,
  "\u0120sun": 3411,
  "\u0120\u0109": 3412,
  "vest": 3413,
  "ying": 3414,
  "\"]\u010a": 3415,
  "\u0120bul": 3416,
  "arts": 3417,
  "Now": 3418,
  "\u00e5\u00b9": 3419,
  "ker": 3420,
  "band": 3421,
  "\u0120wer": 3422,
  "\u00c3\u00a1s": 3423,
  "usr": 3424,
  "BA": 3425,
  "ican": 3426,
  "ett": 3427,
  "ulti": 3428,
  "zer": 3429,
  "oes": 3430,
  "ULAR": 3431,
  "API": 3432,
  "Port": 3433,
  "--\u010a": 3434,
  "DATE": 3435,
  "\u0120@\"": 3436,
  "EE": 3437,
  "\u0120ple": 3438,
  "\u0120pa": 3439,
  "\u0120raw": 3440,
  "\"},\u010a": 3441,
  "CP": 3442,
  "eps": 3443,
  "Op": 3444,
  "\u0120'\"": 3445,
  "\"\"\"\u010a": 3446,
  "bing": 3447,
  "Book": 3448,
  "\u0120Pat": 3449,
  "uman": 3450,
  "plus": 3451,
  "POSE": 3452,
  "oles": 3453,
  "Byte": 3454,
  "ena": 3455,
  "\u00e5\u0132": 3456,
  "coin": 3457,
  ">';\u010a": 3458,
  "enty": 3459,
  "\u0120\"'": 3460,
  "axis": 3461,
  "edge": 3462,
  "\u0120idx": 3463,
  "xis": 3464,
  "arks": 3465,
  "look": 3466,
  "\u0120BE": 3467,
  "\u0120pan": 3468,
  "\u0120auf": 3469,
  "Call": 3470,
  "cb": 3471,
  "\u00c5\u0141": 3472,
  "\u0120Sql": 3473,
  "WORD": 3474,
  "rie": 3475,
  "ffff": 3476,
  "vg": 3477,
  "\u0120\u00c2\u00a9": 3478,
  "ajax": 3479,
  "LOG": 3480,
  "\u0120\\\"": 3481,
  "rier": 3482,
  "aver": 3483,
  "ige": 3484,
  "Sign": 3485,
  "rian": 3486,
  "NESS": 3487,
  "LS": 3488,
  "iger": 3489,
  "\u0120USA": 3490,
  "rev": 3491,
  "\u0120CO": 3492,
  "PECT": 3493,
  "\u0120\u00e2\u0122\u00a2": 3494,
  "emon": 3495,
  "cmp": 3496,
  "eder": 3497,
  "jo": 3498,
  "Only": 3499,
  "\u00ed\u0137": 3500,
  "\u0120Del": 3501,
  "NA": 3502,
  "\u0120rap": 3503,
  "\u0120PUR": 3504,
  "\u00d0\u00b0\u00d0\u00bd": 3505,
  "vm": 3506,
  "Co": 3507,
  "\u0120\"\",": 3508,
  "BS": 3509,
  "\u0120og": 3510,
  "kg": 3511,
  "\u0120Ben": 3512,
  "|\u010a": 3513,
  "vc": 3514,
  "\u0120gar": 3515,
  "\u00e7\u0136": 3516,
  "'])\u010a": 3517,
  "\u0120AT": 3518,
  "nn": 3519,
  "LETE": 3520,
  "ARD": 3521,
  "RC": 3522,
  "ARAM": 3523,
  "ASK": 3524,
  "\u00c5\u013d": 3525,
  "\u0120Mac": 3526,
  "Enc": 3527,
  "\u0120guy": 3528,
  "\u0120Yes": 3529,
  "\u0120Ang": 3530,
  "olar": 3531,
  "JECT": 3532,
  "\u00c3\u0143a": 3533,
  "WS": 3534,
  "\u0120___": 3535,
  "\u0120sin": 3536,
  "\u0120d\u00c3\u00a9": 3537,
  "roke": 3538,
  "Sl": 3539,
  "ugh": 3540,
  "ears": 3541,
  "\u0120hop": 3542,
  "\u0120obs": 3543,
  "\u0109def": 3544,
  "\u0120FIT": 3545,
  "\u0120).": 3546,
  "ME": 3547,
  "OUNT": 3548,
  "IRE": 3549,
  "exas": 3550,
  "uing": 3551,
  "\u0120mil": 3552,
  "apse": 3553,
  "VID": 3554,
  "\u0120vec": 3555,
  "\u0120Max": 3556,
  "\u0120ma": 3557,
  "\u0124\u00ac": 3558,
  "EC": 3559,
  "\u0120ui": 3560,
  "\u0120Law": 3561,
  "\u0120pod": 3562,
  "ORY": 3563,
  "\u0120Av": 3564,
  "chen": 3565,
  "ima": 3566,
  "win": 3567,
  "\u0120SC": 3568,
  "NAME": 3569,
  "\u00e6\u012a": 3570,
  "ONG": 3571,
  "\u0120Il": 3572,
  "duc": 3573,
  "\u00ef\u00bc\u012b": 3574,
  "\u0120LI": 3575,
  "fill": 3576,
  "upt": 3577,
  "\u0109S": 3578,
  "';\u010d\u010a": 3579,
  "iki": 3580,
  "iced": 3581,
  "\u0120Fre": 3582,
  "\u0120sat": 3583,
  "ARG": 3584,
  "OWN": 3585,
  "dk": 3586,
  "\u0120\u00d0\u00b8": 3587,
  "\u00e6\u0138": 3588,
  "\u0120dt": 3589,
  "\u00d0\u00b5\u00d1\u0122": 3590,
  "yled": 3591,
  "ady": 3592,
  "\u0120Leg": 3593,
  "OC": 3594,
  "\u0120*\u010d\u010a": 3595,
  "\u0120\";\u010a": 3596,
  "voke": 3597,
  "\u0120Ok": 3598,
  "Home": 3599,
  "ETH": 3600,
  "dc": 3601,
  "ror": 3602,
  "draw": 3603,
  "lik": 3604,
  "\u0120Arg": 3605,
  "cpy": 3606,
  "\u0120jo": 3607,
  "\u0120Vis": 3608,
  "More": 3609,
  "WARE": 3610,
  "ads": 3611,
  "\u0120\u00d0\u00ba": 3612,
  "bind": 3613,
  "alm": 3614,
  "\u0120'%": 3615,
  "udo": 3616,
  "\u0120ded": 3617,
  "\u0120COM": 3618,
  "DR": 3619,
  "')\u010d\u010a": 3620,
  "Kit": 3621,
  "rate": 3622,
  "\u0120##": 3623,
  "lig": 3624,
  "\u0120BY": 3625,
  "\u0120Att": 3626,
  "ete": 3627,
  "ULE": 3628,
  "ston": 3629,
  "\">\u010a\u010a": 3630,
  "berg": 3631,
  "\u0109e": 3632,
  "\u00c4\u0129": 3633,
  "):\u010a\u010a": 3634,
  "\u0120bey": 3635,
  "urer": 3636,
  "\u0120pul": 3637,
  "Tool": 3638,
  "aked": 3639,
  "\u0120pd": 3640,
  "Err": 3641,
  "TC": 3642,
  "ni": 3643,
  "sign": 3644,
  "ji": 3645,
  "ya": 3646,
  "olic": 3647,
  "\u0120Di": 3648,
  "Your": 3649,
  "\u0120qui": 3650,
  "\u0120ng": 3651,
  "SA": 3652,
  "SG": 3653,
  "oma": 3654,
  "\u0120Exp": 3655,
  "\u0120'-": 3656,
  "sys": 3657,
  "\u0120Cre": 3658,
  "\u0120bur": 3659,
  "\u0120\u00d0\u00b4": 3660,
  "inct": 3661,
  "(\u010d\u010a": 3662,
  "\u0120BO": 3663,
  "Show": 3664,
  "\u0120bon": 3665,
  "RESS": 3666,
  "\u00d0\u00be\u00d0\u00bb": 3667,
  "acks": 3668,
  "Me": 3669,
  "\u0120Bel": 3670,
  "onym": 3671,
  "igo": 3672,
  "Dep": 3673,
  "\u0109\u0109\u0120": 3674,
  "\u0120\u00ce": 3675,
  "\u0120NE": 3676,
  "rees": 3677,
  "\u0120om": 3678,
  "OLD": 3679,
  "eler": 3680,
  "\u0120SQL": 3681,
  "arp": 3682,
  "aud": 3683,
  "\u0120'\u010a": 3684,
  "\u0120sym": 3685,
  "\u00c3\u00a9e": 3686,
  "\u0120GET": 3687,
  "ky": 3688,
  "\u0120sb": 3689,
  "acle": 3690,
  "\u0120au": 3691,
  "\u00e6\u0137": 3692,
  "USE": 3693,
  "\u0120eye": 3694,
  "ola": 3695,
  "xb": 3696,
  "\u0120txt": 3697,
  "alar": 3698,
  "okes": 3699,
  "She": 3700,
  "\u0120II": 3701,
  "\u00e5\u00b9\u00b4": 3702,
  "real": 3703,
  "ali": 3704,
  "\u0120Jew": 3705,
  "\u0120cos": 3706,
  "ben": 3707,
  "\u0120emb": 3708,
  "omin": 3709,
  "\u00d0\u00b0\u00d1\u0124": 3710,
  "clip": 3711,
  "foo": 3712,
  "rent": 3713,
  "\u0120af": 3714,
  "Our": 3715,
  "SL": 3716,
  "kin": 3717,
  "Db": 3718,
  "\u00c3\u0141": 3719,
  "greg": 3720,
  "otos": 3721,
  "Don": 3722,
  "\u00d0\u00bf": 3723,
  "\u0120(@": 3724,
  "\u0120Hot": 3725,
  "\u0120Nor": 3726,
  "\u0120Cap": 3727,
  "-(": 3728,
  "pear": 3729,
  "urr": 3730,
  "\u0120SD": 3731,
  "\u00e5\u00a4": 3732,
  "Exp": 3733,
  "MM": 3734,
  "PA": 3735,
  "pret": 3736,
  "LOCK": 3737,
  "dt": 3738,
  "\u0120Sil": 3739,
  "rf": 3740,
  "uda": 3741,
  "\u0120Cam": 3742,
  "\u0120'</": 3743,
  "\u0120Sun": 3744,
  "ND": 3745,
  "rey": 3746,
  "\u0120nav": 3747,
  "IMIT": 3748,
  "Make": 3749,
  "\u00e5\u012c": 3750,
  "\u0120LOG": 3751,
  "\u0120Sur": 3752,
  "but": 3753,
  "AV": 3754,
  "olf": 3755,
  "\u0120}}\u010a": 3756,
  "\"],\u010a": 3757,
  "\u0120ans": 3758,
  "RR": 3759,
  "emic": 3760,
  "\u0120Sum": 3761,
  "Non": 3762,
  "\u0109ex": 3763,
  "\u0120Dim": 3764,
  "Draw": 3765,
  "nel": 3766,
  "qrt": 3767,
  "\u0120tit": 3768,
  "Axis": 3769,
  "\u0120mur": 3770,
  "xc": 3771,
  "\u0120spr": 3772,
  "mi": 3773,
  "\u00e0\u00b9": 3774,
  "gin": 3775,
  "\u0120squ": 3776,
  "dec": 3777,
  "\u0120boy": 3778,
  "\u00d0\u00b5\u00d1\u0124": 3779,
  "\u0120eat": 3780,
  "\u0120\u00c2\u00bb": 3781,
  "\u0120tro": 3782,
  "ford": 3783,
  "\u0120-*": 3784,
  "\u0109set": 3785,
  "arc": 3786,
  "task": 3787,
  "mys": 3788,
  "\u0120tal": 3789,
  "\u0120Sal": 3790,
  "gi": 3791,
  "\u0120\u00d0\u00be": 3792,
  "bi": 3793,
  "\u0120Sam": 3794,
  "kit": 3795,
  "abe": 3796,
  "\u0109i": 3797,
  "\u0120||\u010a": 3798,
  "\u0120Ser": 3799,
  "\u0120'$": 3800,
  "\u0120foc": 3801,
  "\u0120cat": 3802,
  "Pane": 3803,
  "anta": 3804,
  "\u0120Box": 3805,
  "EB": 3806,
  "LINE": 3807,
  "Sql": 3808,
  "AF": 3809,
  "\u0120Gl": 3810,
  "CO": 3811,
  "ela": 3812,
  "hash": 3813,
  "bose": 3814,
  "fx": 3815,
  "Step": 3816,
  "\u0120pun": 3817,
  "osen": 3818,
  "fc": 3819,
  "\u0120gay": 3820,
  "Spec": 3821,
  "\u0120ol": 3822,
  "\u0120MAX": 3823,
  "yan": 3824,
  "Bit": 3825,
  "zi": 3826,
  "aine": 3827,
  "udd": 3828,
  "\u0120een": 3829,
  "\u0120_,": 3830,
  "\u0120san": 3831,
  "\u0120Tom": 3832,
  "\u0120sig": 3833,
  "xe": 3834,
  "\u0120eth": 3835,
  "Some": 3836,
  "pop": 3837,
  "nil": 3838,
  "\u0120\"\"\u010a": 3839,
  "\u0120Mal": 3840,
  "DM": 3841,
  "\u0120xml": 3842,
  "elen": 3843,
  "fol": 3844,
  "\u0120Jer": 3845,
  "\u0120fan": 3846,
  "\u0120Die": 3847,
  "MB": 3848,
  "Here": 3849,
  "wp": 3850,
  "\u0120\"@": 3851,
  "\u0120Why": 3852,
  "Sec": 3853,
  "heel": 3854,
  "\u0120Che": 3855,
  "\u0120www": 3856,
  "Root": 3857,
  "ANCE": 3858,
  "Many": 3859,
  "icip": 3860,
  "rgan": 3861,
  "\u0120Tor": 3862,
  "\u0120Mor": 3863,
  "uled": 3864,
  "hol": 3865,
  "\u0120cin": 3866,
  "orry": 3867,
  "mat": 3868,
  "dict": 3869,
  "uler": 3870,
  "FS": 3871,
  "\u0120emp": 3872,
  "pth": 3873,
  "pute": 3874,
  "\u0120WH": 3875,
  "\u0120Sie": 3876,
  "+=": 3877,
  "OLOR": 3878,
  "lee": 3879,
  "hy": 3880,
  "MT": 3881,
  "sey": 3882,
  "\u0120ult": 3883,
  "\u00e5\u00ae": 3884,
  "mode": 3885,
  "\u00e4\u00bd": 3886,
  "VICE": 3887,
  "ches": 3888,
  "unes": 3889,
  "\u00d9\u0126": 3890,
  "\u0120}).": 3891,
  "agen": 3892,
  "Iter": 3893,
  "road": 3894,
  "\u0120Ref": 3895,
  "UST": 3896,
  "LC": 3897,
  "\u0120ul": 3898,
  "hide": 3899,
  "copy": 3900,
  "UTF": 3901,
  "\u0120Lin": 3902,
  "una": 3903,
  "ugar": 3904,
  "ummy": 3905,
  "\u0120PR": 3906,
  "di": 3907,
  "Tab": 3908,
  "txt": 3909,
  "_;\u010a": 3910,
  "SH": 3911,
  "BI": 3912,
  "ups": 3913,
  "\u0120OT": 3914,
  "amin": 3915,
  "Any": 3916,
  "ju": 3917,
  "desc": 3918,
  "\u0120)\u010d\u010a": 3919,
  "ktop": 3920,
  "olly": 3921,
  "\u0120fs": 3922,
  "\u0120\u00ea": 3923,
  "\u0120ut": 3924,
  "GR": 3925,
  "iber": 3926,
  "mos": 3927,
  "aws": 3928,
  "\u0109new": 3929,
  "\u0120mal": 3930,
  "ARY": 3931,
  "\u0120Tem": 3932,
  "\u0120mir": 3933,
  "help": 3934,
  "kan": 3935,
  "\u0120|=": 3936,
  "\u0120enh": 3937,
  "\u0120fat": 3938,
  "amm": 3939,
  "ils": 3940,
  "\u0120Oh": 3941,
  "\u0120$.": 3942,
  "inds": 3943,
  "shop": 3944,
  "/\u010a\u010a": 3945,
  "zone": 3946,
  "\u0109\u0120\u0120": 3947,
  "endo": 3948,
  "\u0120eg": 3949,
  "COM": 3950,
  "iro": 3951,
  "\u0120IT": 3952,
  "raz": 3953,
  "\u0120Tur": 3954,
  "cmd": 3955,
  "\u0120Are": 3956,
  "gu": 3957,
  "rm": 3958,
  "Inst": 3959,
  "Area": 3960,
  "\u0120Var": 3961,
  "dl": 3962,
  "GER": 3963,
  "La": 3964,
  "\u0120dos": 3965,
  "\u0120AL": 3966,
  "\u0120Mer": 3967,
  "izz": 3968,
  "ulo": 3969,
  "\u0120Div": 3970,
  "\u0120ton": 3971,
  "oth": 3972,
  "edom": 3973,
  "Save": 3974,
  "PM": 3975,
  "CG": 3976,
  "job": 3977,
  "uer": 3978,
  "firm": 3979,
  "\u0120\u00d8": 3980,
  "etro": 3981,
  "\"`\u010a": 3982,
  "\u0120thr": 3983,
  "\u0109l": 3984,
  "Ne": 3985,
  "Math": 3986,
  "fn": 3987,
  "})\u010a\u010a": 3988,
  "UFF": 3989,
  "mes": 3990,
  "poss": 3991,
  "ira": 3992,
  "oice": 3993,
  "\u00c3\u00a2": 3994,
  "\u0120pm": 3995,
  "Arr": 3996,
  "\u0120\u00d1": 3997,
  "ntax": 3998,
  "\u00eb\u012d": 3999,
  "Dr": 4000,
  "Keys": 4001,
  "Cal": 4002,
  "Car": 4003,
  "emb": 4004,
  "\u0120rad": 4005,
  "\u00e6\u0137\u00b0": 4006,
  "\u0120vir": 4007,
  "\u0120amb": 4008,
  "full": 4009,
  "\u0120fmt": 4010,
  "ATCH": 4011,
  "uzz": 4012,
  "abin": 4013,
  "\u0120hat": 4014,
  "toBe": 4015,
  "\u00e6\u0139\u00a5": 4016,
  "bc": 4017,
  "\u0120Ber": 4018,
  "\u0120\u00e8": 4019,
  "ws": 4020,
  "ipes": 4021,
  "city": 4022,
  "trie": 4023,
  "LY": 4024,
  "nu": 4025,
  "tf": 4026,
  "\u0120pi": 4027,
  "\u0120eq": 4028,
  "bd": 4029,
  "\u0120ban": 4030,
  "\u0109gl": 4031,
  "Mark": 4032,
  "\u0120bg": 4033,
  "([\u010a": 4034,
  "\u00d0\u00b7": 4035,
  "\u0120bag": 4036,
  "\u0120rac": 4037,
  "CR": 4038,
  "NGTH": 4039,
  "\u0120mac": 4040,
  "\u0120'',": 4041,
  "\u0120pin": 4042,
  "\u0120ti": 4043,
  "\u0120\"</": 4044,
  "NO": 4045,
  "\u00e3\u0122\u0124\u010a": 4046,
  "\u0120\"_": 4047,
  "ATED": 4048,
  "oon": 4049,
  "ye": 4050,
  "LAG": 4051,
  "\u0120gam": 4052,
  "\u0120het": 4053,
  "enum": 4054,
  "\u0120SET": 4055,
  "xff": 4056,
  "Rows": 4057,
  "Role": 4058,
  "that": 4059,
  "cher": 4060,
  "\u0120\u00e2\u0128": 4061,
  "XT": 4062,
  "\u0109n": 4063,
  "olut": 4064,
  "Ag": 4065,
  "\u0120Two": 4066,
  "\u0120hus": 4067,
  "urb": 4068,
  "\u0120/*\u010a": 4069,
  "ARN": 4070,
  "\u0120vel": 4071,
  "\u0120bes": 4072,
  "\u0120dry": 4073,
  "IEL": 4074,
  "\u00d0\u00be\u00d1\u0122": 4075,
  "oods": 4076,
  "\u0120Jes": 4077,
  "\u0120wx": 4078,
  "push": 4079,
  "sa": 4080,
  "ista": 4081,
  "ARK": 4082,
  "\u0120dan": 4083,
  "iece": 4084,
  "plex": 4085,
  "Note": 4086,
  "\u0120p\u00c3\u00a5": 4087,
  "PRO": 4088,
  "\u0120<-": 4089,
  "ISE": 4090,
  "Fin": 4091,
  "\u0120fi": 4092,
  "Play": 4093,
  "igin": 4094,
  "cle": 4095,
  "wide": 4096,
  "aren": 4097,
  "Loc": 4098,
  "UTH": 4099,
  "\u0120Bay": 4100,
  "ius": 4101,
  "well": 4102,
  "bert": 4103,
  "ania": 4104,
  "ema": 4105,
  "\u0120CA": 4106,
  "lot": 4107,
  "Sum": 4108,
  "\u00c3\u00a6": 4109,
  "uous": 4110,
  "Lib": 4111,
  "team": 4112,
  "EP": 4113,
  "hat": 4114,
  "quis": 4115,
  "\u0109M": 4116,
  "\u0120aim": 4117,
  "stmt": 4118,
  "\u0120Isl": 4119,
  "\u0120INT": 4120,
  "\u0120scr": 4121,
  "ILL": 4122,
  "HTTP": 4123,
  "\u0120'_": 4124,
  "\u0120Es": 4125,
  "\u00c2\u0142\u00c2\u0142": 4126,
  "\u0120Sou": 4127,
  "uis": 4128,
  "\u0120mas": 4129,
  "\u0120fav": 4130,
  "eras": 4131,
  "\u0120|\u010a": 4132,
  "oted": 4133,
  "lers": 4134,
  "\u0120SP": 4135,
  "\u00e7\u013c": 4136,
  "xFF": 4137,
  "osh": 4138,
  ".)\u010a\u010a": 4139,
  "\u00e3\u0125\u00bb": 4140,
  "ses": 4141,
  "\u0120rid": 4142,
  "\u0120vac": 4143,
  "\u00f0\u0141": 4144,
  "Art": 4145,
  "Host": 4146,
  "rend": 4147,
  "uite": 4148,
  "\u0120Ann": 4149,
  "wt": 4150,
  "ati": 4151,
  "when": 4152,
  "edy": 4153,
  "\u0120Gen": 4154,
  "\u0120DO": 4155,
  "\u0120ll": 4156,
  "ko": 4157,
  "IED": 4158,
  "you": 4159,
  "\u0120r\u00c3\u00a9": 4160,
  "\u00e2\u0122\u013f,": 4161,
  "apes": 4162,
  "...\u010a": 4163,
  "tree": 4164,
  "fast": 4165,
  "\u0120Tim": 4166,
  "\u00d0\u00b8\u00d1\u0124": 4167,
  "bor": 4168,
  "\u0120Mex": 4169,
  "\u00e7\u013c\u0126": 4170,
  "utex": 4171,
  "\u0120Net": 4172,
  "EG": 4173,
  "loss": 4174,
  "BL": 4175,
  "YS": 4176,
  "\u0120sea": 4177,
  "\u0120Est": 4178,
  "cos": 4179,
  "ront": 4180,
  "\u0120MP": 4181,
  "expr": 4182,
  "\u0120??": 4183,
  "\u00c3\u00b6r": 4184,
  "\u0120Que": 4185,
  "\u0120aus": 4186,
  "CRE": 4187,
  "Full": 4188,
  "bes": 4189,
  "LOW": 4190,
  "\u0120fol": 4191,
  "\u0120Ext": 4192,
  "\u0120ta": 4193,
  "Yes": 4194,
  "\u0120USE": 4195,
  "\u0120Aut": 4196,
  "isco": 4197,
  "\u0120mm": 4198,
  "aml": 4199,
  "\u0120({": 4200,
  "\u0120;\u010a\u010a": 4201,
  "\u0120unf": 4202,
  "plt": 4203,
  "isis": 4204,
  "\u0120Mad": 4205,
  "ilm": 4206,
  "Year": 4207,
  "AVE": 4208,
  "stop": 4209,
  "\u0120mi": 4210,
  "Ge": 4211,
  "SM": 4212,
  "TYPE": 4213,
  "\u0120cy": 4214,
  "sel": 4215,
  "oz": 4216,
  "gb": 4217,
  "site": 4218,
  "PLE": 4219,
  "\u00d0\u00be\u00d0\u00b4": 4220,
  "step": 4221,
  "lyph": 4222,
  "'>\u010a": 4223,
  "spec": 4224,
  "ASH": 4225,
  "\u0120#\u010a": 4226,
  "\u0120Vir": 4227,
  "\u0120?>\"": 4228,
  "\u0120bin": 4229,
  "each": 4230,
  "BD": 4231,
  "Doc": 4232,
  "BER": 4233,
  "INS": 4234,
  "READ": 4235,
  "lor": 4236,
  "\u0120fab": 4237,
  "\u00c3\u00b4": 4238,
  "\u0120Ham": 4239,
  "acer": 4240,
  "pub": 4241,
  "\u0120tra": 4242,
  "del": 4243,
  "xa": 4244,
  "\u0120\u00c2\u00b7": 4245,
  "\u0109h": 4246,
  "trl": 4247,
  "\u0109G": 4248,
  "vin": 4249,
  "])\u010a\u010a": 4250,
  "owl": 4251,
  "sn": 4252,
  "utow": 4253,
  "Func": 4254,
  "\u0120tok": 4255,
  "\u0120AD": 4256,
  "reme": 4257,
  "uj": 4258,
  "[\u010a": 4259,
  "\u0120bal": 4260,
  "CF": 4261,
  "PER": 4262,
  "\u0120Los": 4263,
  "\u0120nom": 4264,
  "apy": 4265,
  "umbn": 4266,
  "Impl": 4267,
  "chat": 4268,
  "sect": 4269,
  "yes": 4270,
  "enda": 4271,
  "Conn": 4272,
  "xd": 4273,
  "vt": 4274,
  "\u0120VAL": 4275,
  "\u0120mys": 4276,
  "\u0120MA": 4277,
  "\u00e5\u013d": 4278,
  "\u0120wid": 4279,
  "\u0120Ins": 4280,
  "\u0120Lou": 4281,
  "\u0120Try": 4282,
  "'\u010d\u010a": 4283,
  "\u0120Er": 4284,
  "\u0120flo": 4285,
  "NN": 4286,
  "\u0120];\u010a": 4287,
  "\u0120Aff": 4288,
  "\u0120hyp": 4289,
  "\u00e6\u013e\u012a": 4290,
  "\u0120tu": 4291,
  "xF": 4292,
  "MI": 4293,
  "\u0120Den": 4294,
  "UIL": 4295,
  "bel": 4296,
  "ded": 4297,
  "cf": 4298,
  "dp": 4299,
  "azz": 4300,
  "\u0120lin": 4301,
  "\u0120OUT": 4302,
  "aks": 4303,
  "\u0120EU": 4304,
  "anda": 4305,
  "oral": 4306,
  "ORS": 4307,
  "esso": 4308,
  "\u0120ris": 4309,
  "\u0120ms": 4310,
  "See": 4311,
  "aze": 4312,
  "\u0120yes": 4313,
  "lu": 4314,
  "\u0120\u00c4": 4315,
  "\u0120ice": 4316,
  "\u0120tx": 4317,
  "kr": 4318,
  "\u0120cb": 4319,
  "\u0109err": 4320,
  "Move": 4321,
  "Av": 4322,
  "\u0120bug": 4323,
  "stat": 4324,
  "\u0120rom": 4325,
  "prev": 4326,
  "Find": 4327,
  "\u0120god": 4328,
  "otor": 4329,
  "Cpp": 4330,
  "pol": 4331,
  "\u0120``": 4332,
  "flag": 4333,
  "\u00ef\u00bc\u012a": 4334,
  "\u0120sie": 4335,
  "),\u010d\u010a": 4336,
  "akt": 4337,
  "han": 4338,
  "\u0120Ze": 4339,
  "\u00d0\u00b1": 4340,
  "iva": 4341,
  "\u0120Lat": 4342,
  "OPY": 4343,
  "onto": 4344,
  "lets": 4345,
  "phan": 4346,
  "Will": 4347,
  "NC": 4348,
  "Bind": 4349,
  "TS": 4350,
  "Just": 4351,
  "YP": 4352,
  ")):\u010a": 4353,
  "\u0120cm": 4354,
  "\u0120sam": 4355,
  "zip": 4356,
  "Gen": 4357,
  "vi": 4358,
  "note": 4359,
  "\u0120nut": 4360,
  "fi": 4361,
  "news": 4362,
  "CM": 4363,
  "ping": 4364,
  "wa": 4365,
  "-->\u010a": 4366,
  "rep": 4367,
  "ESS": 4368,
  "decl": 4369,
  "\u0120CS": 4370,
  "olo": 4371,
  "\u0120mb": 4372,
  "Beh": 4373,
  "\u0109P": 4374,
  "alty": 4375,
  "TEST": 4376,
  "\u0120rs": 4377,
  "\u0120sz": 4378,
  ".\"\u010a": 4379,
  "java": 4380,
  "\u0120dut": 4381,
  "\u0120aux": 4382,
  "Sup": 4383,
  "Vec": 4384,
  "\u0120[-": 4385,
  "\u0120Jul": 4386,
  "YY": 4387,
  "Let": 4388,
  "ele": 4389,
  "\u0120[],": 4390,
  "\u0120lab": 4391,
  "ucky": 4392,
  "erge": 4393,
  "\u00e8\u00bf": 4394,
  "\u0120OS": 4395,
  "\u0120ptr": 4396,
  "oves": 4397,
  "\u00d0\u00b5\u00d0\u00bc": 4398,
  "Nav": 4399,
  "wrap": 4400,
  "BB": 4401,
  "\u0120AP": 4402,
  "\u0120Rev": 4403,
  "umin": 4404,
  "\u0120Hy": 4405,
  "()[": 4406,
  "earn": 4407,
  "blem": 4408,
  "ez": 4409,
  "\u0120Ter": 4410,
  "logo": 4411,
  ">;\u010a": 4412,
  "\u0120lif": 4413,
  "Ver": 4414,
  "Btn": 4415,
  "\u0120Mil": 4416,
  "ono": 4417,
  "ENCE": 4418,
  "\u0120cer": 4419,
  "tre": 4420,
  "Day": 4421,
  "\u0120ERR": 4422,
  "\u00e2\u0122\u013eI": 4423,
  "/>\u010a": 4424,
  "\u00d9\u0127": 4425,
  "\u0120tom": 4426,
  "aped": 4427,
  "\u0120rc": 4428,
  "Pe": 4429,
  "\u0109res": 4430,
  "\u00e8\u00ae": 4431,
  "\u0120ber": 4432,
  "asi": 4433,
  "Exec": 4434,
  "\u0109let": 4435,
  "\u0120Put": 4436,
  "\u0109x": 4437,
  "Sort": 4438,
  "ONT": 4439,
  "Why": 4440,
  "\u0120\u00e7": 4441,
  "abet": 4442,
  "cut": 4443,
  "\u0120lie": 4444,
  "\u0120JO": 4445,
  "ti": 4446,
  "Use": 4447,
  "\u0120Pop": 4448,
  "dy": 4449,
  "\u0109T": 4450,
  "week": 4451,
  "\u0120til": 4452,
  "\u0120ju": 4453,
  "burg": 4454,
  "TON": 4455,
  "\u0120rub": 4456,
  "Has": 4457,
  "pool": 4458,
  "\u0120MS": 4459,
  "\u0120(-": 4460,
  "DP": 4461,
  "URI": 4462,
  "\u00c3\u00a9t": 4463,
  "low": 4464,
  "\u0120zip": 4465,
  "ials": 4466,
  "peg": 4467,
  "\u0120PL": 4468,
  "uen": 4469,
  "obby": 4470,
  "\u0120pic": 4471,
  "\u0120odd": 4472,
  "Blue": 4473,
  "bus": 4474,
  "]:\u010a": 4475,
  "Dim": 4476,
  ".\",\u010a": 4477,
  "ipl": 4478,
  "iat": 4479,
  "IELD": 4480,
  "\u0109get": 4481,
  "\u0120kid": 4482,
  ">\u010a\u010a\u010a": 4483,
  "\u00d1\u0128": 4484,
  "math": 4485,
  "Look": 4486,
  "rio": 4487,
  "uan": 4488,
  "\u0120Ret": 4489,
  "plan": 4490,
  "\u00c3\u00a9n": 4491,
  "BOOL": 4492,
  "zz": 4493,
  "\u0120OK": 4494,
  "pid": 4495,
  "tc": 4496,
  "\u00e2\u0138": 4497,
  "\u0120\u0120\u010d\u010a": 4498,
  "\u0120Ev": 4499,
  "eah": 4500,
  "\u00e3\u0122\u012f": 4501,
  "uke": 4502,
  "aria": 4503,
  "eper": 4504,
  "Bean": 4505,
  "done": 4506,
  "\u0120]\u010a\u010a": 4507,
  "\u0120wa": 4508,
  "oker": 4509,
  "-\u010a\u010a": 4510,
  "iner": 4511,
  "Att": 4512,
  "forc": 4513,
  "\u00d1\u0127": 4514,
  "\u0120ped": 4515,
  "\u0120Who": 4516,
  "\u0120ft": 4517,
  "\u0120gro": 4518,
  "\u0120\u00c3\u00bc": 4519,
  "\u0120mp": 4520,
  "loop": 4521,
  "FR": 4522,
  "care": 4523,
  "\u0120ele": 4524,
  "opts": 4525,
  "uce": 4526,
  "ila": 4527,
  "\u0120cup": 4528,
  "asm": 4529,
  "MO": 4530,
  "\u0120cs": 4531,
  "mem": 4532,
  "\u0120\"[": 4533,
  "\u0120swe": 4534,
  "\u0120rob": 4535,
  "Pool": 4536,
  "rv": 4537,
  "kl": 4538,
  "\u0120Wil": 4539,
  "keys": 4540,
  "king": 4541,
  ")}\u010a": 4542,
  "hab": 4543,
  "ADER": 4544,
  "Cor": 4545,
  "\u0120mel": 4546,
  "\u0120AC": 4547,
  "amos": 4548,
  "MAX": 4549,
  "\u0120ts": 4550,
  "free": 4551,
  "\u0120Qt": 4552,
  "ctr": 4553,
  "DT": 4554,
  "ami": 4555,
  "\u0120uma": 4556,
  "XML": 4557,
  "UCT": 4558,
  "Ap": 4559,
  "\u0120ran": 4560,
  "\u0120Gal": 4561,
  "\u0120Old": 4562,
  "hot": 4563,
  "Kind": 4564,
  "rase": 4565,
  "\u0120RT": 4566,
  "gers": 4567,
  "\u0120ich": 4568,
  "\u0120utf": 4569,
  "prec": 4570,
  "ORK": 4571,
  "\u0120dst": 4572,
  "\u0120dur": 4573,
  "\u0120],": 4574,
  "hand": 4575,
  "\u00e5\u0143": 4576,
  "ibr": 4577,
  "trim": 4578,
  "\u0120Op": 4579,
  "Sm": 4580,
  "Stop": 4581,
  "\u0109u": 4582,
  "rb": 4583,
  "LOB": 4584,
  "ICK": 4585,
  "raq": 4586,
  "\u0120md": 4587,
  "oor": 4588,
  "osis": 4589,
  "\u0120als": 4590,
  "lan": 4591,
  "asis": 4592,
  "rum": 4593,
  "\u0120ack": 4594,
  "reek": 4595,
  "DEX": 4596,
  "apon": 4597,
  "CLUD": 4598,
  "Ang": 4599,
  "\u0120Enc": 4600,
  "Cre": 4601,
  "IENT": 4602,
  "isa": 4603,
  "\u0120\u00ed": 4604,
  "\u0120BAS": 4605,
  "Enum": 4606,
  "GE": 4607,
  "oria": 4608,
  "\u0120od": 4609,
  "door": 4610,
  "ARCH": 4611,
  "dden": 4612,
  "fire": 4613,
  "fb": 4614,
  "\u0120Row": 4615,
  "TF": 4616,
  "nie": 4617,
  "\u0120\u00d1\u0124": 4618,
  "\u0120pt": 4619,
  "FORM": 4620,
  "plet": 4621,
  "cpp": 4622,
  "oked": 4623,
  "IDTH": 4624,
  "unte": 4625,
  "orse": 4626,
  "\u0120wed": 4627,
  "PH": 4628,
  "\u0120Atl": 4629,
  "cred": 4630,
  "\u0120mes": 4631,
  "Go": 4632,
  "kill": 4633,
  "fp": 4634,
  "\u0120pal": 4635,
  "\u0120\"${": 4636,
  "\u0120Cup": 4637,
  "uns": 4638,
  "\u0120ss": 4639,
  "TERN": 4640,
  "Word": 4641,
  "igan": 4642,
  "\u0120Vol": 4643,
  "\u0120nn": 4644,
  "\u0120\u00d0\u00b7": 4645,
  "\u0120kom": 4646,
  "\u00e3\u0122\u0132": 4647,
  "]))\u010a": 4648,
  "\u0120nu": 4649,
  "avax": 4650,
  "\u0120BUT": 4651,
  "yr": 4652,
  "\u0120DC": 4653,
  "\u0120sed": 4654,
  "\u0120bot": 4655,
  "\u0120Pal": 4656,
  "ende": 4657,
  "Free": 4658,
  "PEC": 4659,
  "\u0120Jo": 4660,
  "---\u010a": 4661,
  "\u0109D": 4662,
  "\u00e3\u0122\u0133": 4663,
  "\u0120){\u010a": 4664,
  "\u0120lay": 4665,
  "oul": 4666,
  "\u0120Mel": 4667,
  "peat": 4668,
  "tor": 4669,
  "\u0120Pan": 4670,
  "LM": 4671,
  "\u0120vm": 4672,
  "\u00e5\u012f": 4673,
  "Seg": 4674,
  "eq": 4675,
  "lf": 4676,
  "\u0109fmt": 4677,
  "\u00c4\u0141": 4678,
  "\u0120Men": 4679,
  "\u0120!!": 4680,
  "\u0120pad": 4681,
  "requ": 4682,
  "\u0120Ep": 4683,
  "eto": 4684,
  "uard": 4685,
  "\u0120Roy": 4686,
  "west": 4687,
  "itz": 4688,
  "'):\u010a": 4689,
  "\u0120Cas": 4690,
  "aje": 4691,
  "\u0120fee": 4692,
  "reh": 4693,
  "Desc": 4694,
  "\u00d8\u00b1": 4695,
  "\u00d0\u00bb\u00d0\u00b8": 4696,
  "\u0120CD": 4697,
  "bn": 4698,
  "GEN": 4699,
  "\u0120tv": 4700,
  "\u0120KE": 4701,
  "Fore": 4702,
  "Mon": 4703,
  "iot": 4704,
  "\u0120sac": 4705,
  "adas": 4706,
  "May": 4707,
  "\u0109\u010a\u0109\u010a": 4708,
  "orno": 4709,
  "\u0120ru": 4710,
  "\u00e0\u00a6": 4711,
  "\u0120fif": 4712,
  "cy": 4713,
  "\u0109R": 4714,
  "appy": 4715,
  "\u0120LE": 4716,
  "\u00c3\u00b5": 4717,
  "izar": 4718,
  "\u0120suc": 4719,
  "\u0120\u00f0\u0141": 4720,
  "\u0120va": 4721,
  "VO": 4722,
  "\u0120END": 4723,
  "\u0120sav": 4724,
  "feed": 4725,
  "VM": 4726,
  "ega": 4727,
  "}\"\u010a": 4728,
  "\u00e2\u0122\u013f.": 4729,
  "cean": 4730,
  "\u0120ven": 4731,
  "\u0120Jud": 4732,
  "uilt": 4733,
  "Bool": 4734,
  "CI": 4735,
  "AGES": 4736,
  "tle": 4737,
  "bur": 4738,
  "RY": 4739,
  "\u0120rat": 4740,
  "}}\u010a": 4741,
  "mask": 4742,
  "\u0109ret": 4743,
  "dro": 4744,
  "icio": 4745,
  "Len": 4746,
  "\u0120#{": 4747,
  "URN": 4748,
  "VC": 4749,
  "\u0120Buy": 4750,
  "\u0120cle": 4751,
  "aret": 4752,
  "UES": 4753,
  "\u0120\u00d0\u00bc": 4754,
  "\u0120Vec": 4755,
  "\u0120nie": 4756,
  "\u00ef\u00bc\u0141": 4757,
  "\u0109a": 4758,
  "\u0120dp": 4759,
  "\u0120Ma": 4760,
  "\u0120Pet": 4761,
  "rand": 4762,
  "\u00e9\u0122": 4763,
  "Rule": 4764,
  "\u0120hel": 4765,
  "RITE": 4766,
  "\u0120IL": 4767,
  "cap": 4768,
  "\u0120USB": 4769,
  "\u0109str": 4770,
  "\u0120PDF": 4771,
  "acts": 4772,
  "imo": 4773,
  "\u0120Sym": 4774,
  "\u0120(!$": 4775,
  "PG": 4776,
  "\u0120era": 4777,
  "\u0120ho": 4778,
  "\u0120Jim": 4779,
  "quir": 4780,
  "\u00c3\u00a1n": 4781,
  "DER": 4782,
  "Well": 4783,
  "\u0120\u00e2\u0128\u0134": 4784,
  "\u0120Vi": 4785,
  "\u0120*=": 4786,
  "\u0120PS": 4787,
  "OME": 4788,
  "\u0120MO": 4789,
  "FE": 4790,
  "Idx": 4791,
  "\u0120\u00c3\u00a8": 4792,
  "\u0120Bre": 4793,
  "\u0120Acc": 4794,
  "arry": 4795,
  "\".\u010a\u010a": 4796,
  "ifer": 4797,
  "ynam": 4798,
  "ipt": 4799,
  "\u0120Has": 4800,
  "\u0120Its": 4801,
  "UTE": 4802,
  "RS": 4803,
  "cart": 4804,
  "war": 4805,
  "\u0120'''": 4806,
  "\u0120pil": 4807,
  "\u0120tun": 4808,
  "\u0120Bad": 4809,
  "\u0120fly": 4810,
  "\u0120Pay": 4811,
  "\u0120ds": 4812,
  "\u0120Sol": 4813,
  "Hz": 4814,
  "--;\u010a": 4815,
  "\u00e4\u00bf": 4816,
  "wait": 4817,
  "DED": 4818,
  "igma": 4819,
  "\u0120sob": 4820,
  "ika": 4821,
  "ANGE": 4822,
  "Send": 4823,
  "\u0120#[": 4824,
  "bits": 4825,
  "\u0120`${": 4826,
  "usic": 4827,
  "Are": 4828,
  "\u0120tod": 4829,
  "\u0120hun": 4830,
  "\u00e5\u00ba": 4831,
  "tl": 4832,
  "\u0120IF": 4833,
  "\u0120tip": 4834,
  "sex": 4835,
  "},\u010d\u010a": 4836,
  "vs": 4837,
  "\u0120Dan": 4838,
  "Rate": 4839,
  "lie": 4840,
  "Mock": 4841,
  "\u0120'{": 4842,
  "Mat": 4843,
  "Ok": 4844,
  "\u0120Non": 4845,
  "epar": 4846,
  "nic": 4847,
  "scri": 4848,
  "Xml": 4849,
  "BE": 4850,
  "Pop": 4851,
  "cam": 4852,
  "\u0120(((": 4853,
  "MC": 4854,
  "\u0120Lab": 4855,
  "ray": 4856,
  "Two": 4857,
  "\u0120Les": 4858,
  "\u00c2\u00b0": 4859,
  "\u00e6\u013a": 4860,
  "\u00e2\u0136": 4861,
  "\u00e7\u0136\u00a8": 4862,
  "\u0120din": 4863,
  "eric": 4864,
  "INK": 4865,
  "\u00c5\u00a1": 4866,
  "gray": 4867,
  "Ac": 4868,
  "Edge": 4869,
  "blog": 4870,
  "xi": 4871,
  "gon": 4872,
  "outs": 4873,
  "uent": 4874,
  "\u0120HE": 4875,
  "zt": 4876,
  "'},\u010a": 4877,
  "ANS": 4878,
  "\u0120cul": 4879,
  "FP": 4880,
  "\u0120\"\")": 4881,
  "\u0120Equ": 4882,
  "kins": 4883,
  "ogen": 4884,
  "\u00e3\u0125\u00bc": 4885,
  "\u0120vul": 4886,
  "\u0120ath": 4887,
  "\u0120([": 4888,
  "exec": 4889,
  "\u0120Tw": 4890,
  "\u0120fo": 4891,
  "asts": 4892,
  "sen": 4893,
  "\u0120ast": 4894,
  "\u0120Rom": 4895,
  "\u0120''\u010a": 4896,
  "\u0120*,": 4897,
  "\u0120Jun": 4898,
  "eno": 4899,
  "umps": 4900,
  "uits": 4901,
  "\u00d9\u0128": 4902,
  "\u0120Ps": 4903,
  ".',\u010a": 4904,
  "\u0120sel": 4905,
  "VEL": 4906,
  "\u0120RO": 4907,
  "\u0120pel": 4908,
  "lg": 4909,
  "\u0120pp": 4910,
  "\u0120ci": 4911,
  "\u0109RT": 4912,
  "pdf": 4913,
  "\u0120Ro": 4914,
  "\u0120Si": 4915,
  "\u0120mu": 4916,
  "ROUP": 4917,
  "\u0120Son": 4918,
  "Tube": 4919,
  "ems": 4920,
  "\u0120nue": 4921,
  "aus": 4922,
  "ATOR": 4923,
  "INGS": 4924,
  "hal": 4925,
  "\u0109\u0109\u0109\u0120": 4926,
  "star": 4927,
  "ACH": 4928,
  "\u0120XML": 4929,
  "priv": 4930,
  "\u0120nos": 4931,
  "high": 4932,
  "fun": 4933,
  "elly": 4934,
  "AK": 4935,
  "Oh": 4936,
  "\u00c2\u00ae": 4937,
  "\u0120GT": 4938,
  "\u00d1\u0130": 4939,
  "pio": 4940,
  "rog": 4941,
  "OU": 4942,
  "IEW": 4943,
  "ctrl": 4944,
  "\u0120ja": 4945,
  "\u0120ec": 4946,
  "\u0120xs": 4947,
  "mac": 4948,
  "\u0120och": 4949,
  "\u0120Ol": 4950,
  "\u0120Ir": 4951,
  "HS": 4952,
  "\u0120mt": 4953,
  "\u0120Nav": 4954,
  "ITEM": 4955,
  "?\"\u010a\u010a": 4956,
  "High": 4957,
  "\u0120DIS": 4958,
  "QUI": 4959,
  "aux": 4960,
  "\u0120UP": 4961,
  "osa": 4962,
  "\u0120voc": 4963,
  "\u0120))": 4964,
  "ocom": 4965,
  "\u0120Db": 4966,
  "Lock": 4967,
  "\u0120\"(": 4968,
  "\u0120\u00e2\u012a": 4969,
  "aire": 4970,
  "FG": 4971,
  "ANN": 4972,
  "aba": 4973,
  "\u0120fp": 4974,
  "\u0120Job": 4975,
  "\u0120KEY": 4976,
  "\u0120-*-": 4977,
  "flex": 4978,
  "\u0120soc": 4979,
  "Ret": 4980,
  "conv": 4981,
  "hen": 4982,
  "\u0120Low": 4983,
  "Il": 4984,
  "eed": 4985,
  "LOC": 4986,
  "uv": 4987,
  "iser": 4988,
  "Mar": 4989,
  "iche": 4990,
  "\u0120Lee": 4991,
  "\u00c3\u00a8re": 4992,
  "anz": 4993,
  "\u0120SK": 4994,
  "razy": 4995,
  "aser": 4996,
  ";}\u010a": 4997,
  "argo": 4998,
  "Self": 4999,
  "EIF": 5000,
  "\u0120Bi": 5001,
  "\u0120IB": 5002,
  "Copy": 5003,
  "etc": 5004,
  "\u0120>>>": 5005,
  "\u0120'__": 5006,
  "Have": 5007,
  "\u00d0\u00b5\u00d0\u00bb": 5008,
  "xC": 5009,
  "ku": 5010,
  "Flag": 5011,
  "dux": 5012,
  "\u00d0\u00b9": 5013,
  "\u00c3\u00a8s": 5014,
  ";\">\u010a": 5015,
  "IDE": 5016,
  "__\u010a": 5017,
  "\u0120Way": 5018,
  "\u00d1\u012a": 5019,
  "Temp": 5020,
  "\u0120STR": 5021,
  "Sync": 5022,
  "\u0120AV": 5023,
  "\u0120CEO": 5024,
  "\u0120JS": 5025,
  "gar": 5026,
  "\u0120HD": 5027,
  "REG": 5028,
  "Meta": 5029,
  "\u00c5\u00be": 5030,
  "\u0120cum": 5031,
  "\u00c3\u00ab": 5032,
  "\u0120tar": 5033,
  "Pass": 5034,
  "\u0120Win": 5035,
  "pile": 5036,
  "\u0120Gar": 5037,
  "Dao": 5038,
  "\u0120HP": 5039,
  "SION": 5040,
  "blue": 5041,
  "Then": 5042,
  "dist": 5043,
  "lon": 5044,
  "shal": 5045,
  "bg": 5046,
  "\u0120nur": 5047,
  "OG": 5048,
  "\u00d0\u00be\u00d0\u00bc": 5049,
  "Job": 5050,
  "cert": 5051,
  "DIR": 5052,
  "cdn": 5053,
  "\u00c3\u00b3w": 5054,
  "ENER": 5055,
  "\u0120ns": 5056,
  "\u0120NY": 5057,
  "\u0120lic": 5058,
  "\u00e5\u013e": 5059,
  "Mr": 5060,
  "idi": 5061,
  "\u0120Jon": 5062,
  "Join": 5063,
  "eli": 5064,
  "\u0120aid": 5065,
  "'){\u010a": 5066,
  "iti": 5067,
  "\u0120Spe": 5068,
  "\u0120\")": 5069,
  "mg": 5070,
  "\u0120xxx": 5071,
  "ders": 5072,
  "\u0120Ltd": 5073,
  "\u0120Adv": 5074,
  "Mill": 5075,
  "LD": 5076,
  "ered": 5077,
  "Head": 5078,
  "\u0120Tag": 5079,
  "itar": 5080,
  "\u0120evt": 5081,
  "\u0120Tri": 5082,
  "\u0120DAM": 5083,
  "\u0120reb": 5084,
  "\u00d0\u00bd\u00d1\u012d": 5085,
  "\u0120Bur": 5086,
  "\u0120hex": 5087,
  "ctl": 5088,
  "\u0120az": 5089,
  "\u0120->\u010a": 5090,
  "iams": 5091,
  "\u0120iT": 5092,
  "mond": 5093,
  "?\u00e2\u0122\u013f": 5094,
  "nam": 5095,
  "noon": 5096,
  "\u0120fd": 5097,
  "Rest": 5098,
  "iana": 5099,
  "\u0120sad": 5100,
  "\u0120ble": 5101,
  "Prot": 5102,
  "\u0109j": 5103,
  "kdir": 5104,
  "fil": 5105,
  "\u0120wel": 5106,
  "Pair": 5107,
  "\u0120---": 5108,
  "ikes": 5109,
  "WE": 5110,
  "elif": 5111,
  "olec": 5112,
  "aga": 5113,
  "\u0120adj": 5114,
  "VD": 5115,
  "\u0120Tre": 5116,
  "OF": 5117,
  "Span": 5118,
  "\u0120\u00c2\u00ab": 5119,
  "iden": 5120,
  "\u0120cp": 5121,
  "\u00e7\u00bb": 5122,
  "\u0120pri": 5123,
  "nen": 5124,
  "fmt": 5125,
  "okie": 5126,
  "\u0120spl": 5127,
  "ea": 5128,
  "Div": 5129,
  "\u0120Ill": 5130,
  ">,\u010a": 5131,
  "Once": 5132,
  "abb": 5133,
  "\u0120cc": 5134,
  "alo": 5135,
  "vol": 5136,
  "uh": 5137,
  "imm": 5138,
  "JS": 5139,
  "what": 5140,
  "kes": 5141,
  "eur": 5142,
  "\u0120Mos": 5143,
  "LP": 5144,
  "\u0120Saf": 5145,
  "\u00e5\u0129": 5146,
  ")];\u010a": 5147,
  "\u0120NFL": 5148,
  "aya": 5149,
  "Cart": 5150,
  "\u0120mob": 5151,
  "igit": 5152,
  "\":{\u010a": 5153,
  "\u0120GO": 5154,
  "xE": 5155,
  "\u0120wp": 5156,
  "\u0120Haw": 5157,
  "\u0120CR": 5158,
  "\u00e0\u00a5": 5159,
  "tpl": 5160,
  "UNC": 5161,
  "\u0120Pac": 5162,
  "ring": 5163,
  "anna": 5164,
  "rick": 5165,
  "rx": 5166,
  "\u00c3\u00b5es": 5167,
  "\u00d9\u012a": 5168,
  "agra": 5169,
  "ova": 5170,
  "\u0120()\u010a": 5171,
  "pair": 5172,
  "Mask": 5173,
  "Help": 5174,
  "Star": 5175,
  "phy": 5176,
  "Ids": 5177,
  "aza": 5178,
  "TEXT": 5179,
  "\u0120\u00c3\u00a4": 5180,
  "\u0120Van": 5181,
  "aman": 5182,
  "\u0109add": 5183,
  "dx": 5184,
  "\u0109F": 5185,
  "City": 5186,
  "\u0120DES": 5187,
  "tics": 5188,
  "zo": 5189,
  "\u0120Der": 5190,
  "pts": 5191,
  "bt": 5192,
  "\u0120dot": 5193,
  "abil": 5194,
  "aron": 5195,
  "Real": 5196,
  "\u0120FL": 5197,
  "sup": 5198,
  "agic": 5199,
  "\u0120pdf": 5200,
  "ras": 5201,
  "\u00e8\u00a1": 5202,
  "\u0120ni": 5203,
  "\u0120ba": 5204,
  "\u0120cls": 5205,
  "\u0109B": 5206,
  "\u0120mad": 5207,
  "){\u010a\u010a": 5208,
  "\u0120fro": 5209,
  "hus": 5210,
  "\u00ec\u013f\u00b4": 5211,
  "ingu": 5212,
  "\u0120Na": 5213,
  "OLUM": 5214,
  "it\u00c3\u00a9": 5215,
  "owed": 5216,
  "\u0120hur": 5217,
  "VA": 5218,
  "clar": 5219,
  "Typ": 5220,
  "\u0120Ess": 5221,
  "\u0120Rub": 5222,
  "ulp": 5223,
  "itud": 5224,
  "\u0120Joe": 5225,
  "itan": 5226,
  "\u00e6\u012a\u0132": 5227,
  "iper": 5228,
  "\u0120*(": 5229,
  "Gap": 5230,
  "\u0120PA": 5231,
  "\u00e3\u0122\u012e": 5232,
  "git": 5233,
  "\u0120sky": 5234,
  "\u0120Cur": 5235,
  "mc": 5236,
  "anny": 5237,
  "`,\u010a": 5238,
  "OKEN": 5239,
  "ownt": 5240,
  "Cap": 5241,
  "\u0120Af": 5242,
  "pler": 5243,
  "\u0120rhs": 5244,
  "eres": 5245,
  "ifi": 5246,
  "_\u010a": 5247,
  "dim": 5248,
  "\u0120gap": 5249,
  "\u0120PO": 5250,
  "Bag": 5251,
  "rule": 5252,
  "Like": 5253,
  ")\"\u010a": 5254,
  "\u0120LA": 5255,
  "\u0120\u00d8\u00a7": 5256,
  "\u0120fle": 5257,
  "CB": 5258,
  "\u0120seq": 5259,
  "har": 5260,
  "\u0120\u00e2\u0124\u00ac": 5261,
  "LOAD": 5262,
  "\u0120Arm": 5263,
  "\u0120./": 5264,
  "\u00c2\u00bb": 5265,
  "sync": 5266,
  "icer": 5267,
  "*/\u010d\u010a": 5268,
  "\u0120Bet": 5269,
  "\u0120lit": 5270,
  "\u0120\":": 5271,
  "iel": 5272,
  "Img": 5273,
  "\u00d0\u00be\u00d1\u0124": 5274,
  "\u0120k\u00c3\u00b6": 5275,
  "\u0120\u0109\u0109": 5276,
  "Hi": 5277,
  "\u0120nob": 5278,
  "geo": 5279,
  ".\")\u010a": 5280,
  "\u00e9\u0139": 5281,
  "\u0120Sn": 5282,
  "\u0120unt": 5283,
  "\u0120Hen": 5284,
  "\u0120uri": 5285,
  "\u00e5\u0132\u012f": 5286,
  "\u0120\u00c3\u00a5": 5287,
  "John": 5288,
  "\u0120Age": 5289,
  "\u0120];": 5290,
  "iano": 5291,
  "isp": 5292,
  "\u00e9\u0129": 5293,
  "\u0120Bed": 5294,
  "BR": 5295,
  "keep": 5296,
  "\u0120ALL": 5297,
  "amma": 5298,
  "\u00d0\u00b5\u00d0\u00b4": 5299,
  "\u0120+:+": 5300,
  "aler": 5301,
  "\u0120tid": 5302,
  "\u0120LED": 5303,
  "\u0120PHP": 5304,
  "cv": 5305,
  "\u0120sf": 5306,
  "rank": 5307,
  "\u00d0\u00ba\u00d0\u00b0": 5308,
  "\u0120OP": 5309,
  "=>{\u010a": 5310,
  "\u0120km": 5311,
  "oco": 5312,
  "\u0120tog": 5313,
  "tip": 5314,
  "\u00eb\u012d\u00a4": 5315,
  "\u0120csv": 5316,
  "weak": 5317,
  "\u00c4\u012f": 5318,
  "\u0120vit": 5319,
  "Even": 5320,
  "uten": 5321,
  "bian": 5322,
  "\u00ec\u0140": 5323,
  "\u0120RES": 5324,
  "fony": 5325,
  "orem": 5326,
  "\u0120Sat": 5327,
  "ongs": 5328,
  "once": 5329,
  "\u0120_.": 5330,
  "\u0120cnt": 5331,
  "\u0120yy": 5332,
  "sock": 5333,
  "]];\u010a": 5334,
  "UND": 5335,
  "Sw": 5336,
  "\u0120Hom": 5337,
  "\u0120+#+": 5338,
  "\u0120Kar": 5339,
  "isi": 5340,
  "\u0120tur": 5341,
  "bf": 5342,
  "pad": 5343,
  "ego": 5344,
  "\u0120rig": 5345,
  "Auto": 5346,
  "\u0120Ray": 5347,
  "asse": 5348,
  "gun": 5349,
  "seq": 5350,
  "\u0120\"__": 5351,
  "pin": 5352,
  "\u0120bei": 5353,
  "rad": 5354,
  "\u0120Fox": 5355,
  "\u0120cfg": 5356,
  "\u0109H": 5357,
  "\u0120Pen": 5358,
  "ugs": 5359,
  "oir": 5360,
  "\u0120ih": 5361,
  "\u0120Rod": 5362,
  "Med": 5363,
  "\u0120pc": 5364,
  "bal": 5365,
  "Most": 5366,
  "\u00d8\u00af": 5367,
  "andy": 5368,
  "aka": 5369,
  "href": 5370,
  "\u0120MB": 5371,
  "stra": 5372,
  "\u00e6\u0139\u00b6": 5373,
  "\u00e8\u00b4": 5374,
  "oup": 5375,
  "idos": 5376,
  "\u0120Pak": 5377,
  "\u0120ik": 5378,
  "lag": 5379,
  "asp": 5380,
  "\u0120wie": 5381,
  "Attr": 5382,
  "duce": 5383,
  "VP": 5384,
  "\u0120SW": 5385,
  "kip": 5386,
  "Also": 5387,
  "\u0120\"&": 5388,
  "UX": 5389,
  "\u0120Emp": 5390,
  "uma": 5391,
  "\u0120kan": 5392,
  "iest": 5393,
  "\u0120Api": 5394,
  "sd": 5395,
  "ussy": 5396,
  "Dict": 5397,
  "\u0120Far": 5398,
  "\u0120'')": 5399,
  "\u0120(%": 5400,
  "TRGL": 5401,
  "onna": 5402,
  "\u0120EXP": 5403,
  "fall": 5404,
  "\u00e5\u012e": 5405,
  "TL": 5406,
  "owa": 5407,
  "\u0120Bon": 5408,
  "HL": 5409,
  "diff": 5410,
  "quot": 5411,
  "\u0120,\u010a": 5412,
  "\u0120Bul": 5413,
  "\u0120Feb": 5414,
  "undo": 5415,
  "\u00d0\u00b8\u00d1\u0123": 5416,
  "tras": 5417,
  "\u0120Kim": 5418,
  "\u0120ga": 5419,
  "\u00e5\u00b8": 5420,
  "\u0120ham": 5421,
  "oval": 5422,
  "\u0120cha": 5423,
  "aten": 5424,
  "\u00e5\u0128": 5425,
  "\u0120ya": 5426,
  "\u00e6\u0136": 5427,
  "\u0120Gre": 5428,
  "\u0120CC": 5429,
  "\u0120gi": 5430,
  "zie": 5431,
  "gypt": 5432,
  "\u0120Ell": 5433,
  "\u0109\u0109\u0120\u0120": 5434,
  "lp": 5435,
  "aha": 5436,
  "\u0120Mem": 5437,
  "Comp": 5438,
  "\u00e5\u00bc": 5439,
  "\u0120sv": 5440,
  "anto": 5441,
  "\u00ec\u0139": 5442,
  "IBLE": 5443,
  "iar": 5444,
  "inf": 5445,
  "OUND": 5446,
  "\u0120ty": 5447,
  "\u0120Lim": 5448,
  "Html": 5449,
  "\u0120':": 5450,
  "PATH": 5451,
  "\u0120Loc": 5452,
  "ori": 5453,
  "azy": 5454,
  "\u0120Kn": 5455,
  "\u0109my": 5456,
  "\u0120Sar": 5457,
  "LED": 5458,
  "DEF": 5459,
  "exit": 5460,
  "ERN": 5461,
  "ERY": 5462,
  "isms": 5463,
  "\u0120cn": 5464,
  "\u0120;;": 5465,
  "AE": 5466,
  "\u0120REG": 5467,
  "abc": 5468,
  "\u00d0\u00bd\u00d0\u00be": 5469,
  "\u00d0\u00bb\u00d1\u0131": 5470,
  ".*;\u010a": 5471,
  "\u0120Mid": 5472,
  "\u00c3\u00a9es": 5473,
  "\u0120glo": 5474,
  "\u0120ze": 5475,
  "\u0120Pot": 5476,
  "vy": 5477,
  "\u0120SM": 5478,
  "bat": 5479,
  "apis": 5480,
  "Gui": 5481,
  "tm": 5482,
  "Pad": 5483,
  "\u0120ads": 5484,
  "izza": 5485,
  "\u0120mg": 5486,
  "%\u010a": 5487,
  "oose": 5488,
  "away": 5489,
  "inar": 5490,
  "\u00c3\u00a9r": 5491,
  "\u00d0\u00be\u00d0\u00b1": 5492,
  "pipe": 5493,
  "cz": 5494,
  "axy": 5495,
  "esis": 5496,
  "\u0120Ren": 5497,
  "days": 5498,
  "Est": 5499,
  "\u0120Luc": 5500,
  "PERT": 5501,
  "lar": 5502,
  "het": 5503,
  "\u0120Ide": 5504,
  "uet": 5505,
  "\u0120Po": 5506,
  "REEN": 5507,
  "SI": 5508,
  "erte": 5509,
  "\u0120dx": 5510,
  "Py": 5511,
  "eda": 5512,
  "raid": 5513,
  "\u0120dw": 5514,
  "\u0120(!(": 5515,
  "\u0120FBI": 5516,
  "lymp": 5517,
  "\u00e9\u00a1": 5518,
  "dm": 5519,
  "rich": 5520,
  "\u0120kne": 5521,
  "bad": 5522,
  "\u0120({\u010a": 5523,
  "\u0120\"{": 5524,
  "\u00e7\u00a7": 5525,
  "erto": 5526,
  "SO": 5527,
  "unge": 5528,
  "erra": 5529,
  "\u010a\u0120\u0120\u010a": 5530,
  "pay": 5531,
  "\u0120Ire": 5532,
  "NER": 5533,
  "\u0120Ty": 5534,
  "Uri": 5535,
  "\u0120'+": 5536,
  "\u0120vor": 5537,
  "food": 5538,
  "\u0120\u00c3\u00a9t": 5539,
  "cht": 5540,
  "\u0120{$": 5541,
  "\u0120\u00d1\u0125": 5542,
  "\u00c2\u00b7": 5543,
  "\u0120CPU": 5544,
  "\u00e6\u013f": 5545,
  "\u0120dy": 5546,
  "avg": 5547,
  "\u0109out": 5548,
  "ques": 5549,
  "\u00c3\u00a4r": 5550,
  "\u0120MD": 5551,
  "\u00e9\u013b": 5552,
  "occ": 5553,
  "\u0120SER": 5554,
  "Addr": 5555,
  "oda": 5556,
  "\u0120rum": 5557,
  "Room": 5558,
  "YES": 5559,
  "\u00e2\u0122\u013a": 5560,
  "onic": 5561,
  "//\u010d\u010a": 5562,
  "LES": 5563,
  "\u0120oh": 5564,
  "Sim": 5565,
  "atos": 5566,
  "\u00c3\u00a4t": 5567,
  "oga": 5568,
  "\u0120shr": 5569,
  "LOAT": 5570,
  "\u0120lux": 5571,
  "inv": 5572,
  "utch": 5573,
  "\u0120\u00d0\u00b1": 5574,
  "NOT": 5575,
  "png": 5576,
  "cfg": 5577,
  "awa": 5578,
  "\u0120YES": 5579,
  "tags": 5580,
  "\u0120sid": 5581,
  "fff": 5582,
  "\u0120cro": 5583,
  "\u0120Ha": 5584,
  "\u0120bid": 5585,
  "\"])\u010a": 5586,
  "oft": 5587,
  "UBL": 5588,
  "docs": 5589,
  "ocs": 5590,
  "\u0120Je": 5591,
  "eden": 5592,
  "irk": 5593,
  "\u0120AB": 5594,
  "\u00d1\u012b": 5595,
  "\u0109mem": 5596,
  "\u0120ot": 5597,
  "\u0120ids": 5598,
  "ijn": 5599,
  "zero": 5600,
  "\u0120CV": 5601,
  "\u0120\")\u010a": 5602,
  "eval": 5603,
  "tool": 5604,
  "Own": 5605,
  "Wait": 5606,
  "\u00d0\u00bd\u00d0\u00b0": 5607,
  "Mesh": 5608,
  "\u0120tan": 5609,
  "QUAL": 5610,
  "\u0120blo": 5611,
  "otic": 5612,
  "\u00e4\u00bb\u00b6": 5613,
  "oli": 5614,
  "\u0120Da": 5615,
  "IRST": 5616,
  "\u0120Sem": 5617,
  "\u0120McC": 5618,
  "\u0120Dog": 5619,
  "aded": 5620,
  "\u0120Ken": 5621,
  "\u0120Bob": 5622,
  "\u0120Mir": 5623,
  "cn": 5624,
  "\u00e5\u00bd": 5625,
  "onom": 5626,
  "evin": 5627,
  "mean": 5628,
  "]]\u010a": 5629,
  "adv": 5630,
  "IFT": 5631,
  "\u00d8\u00aa": 5632,
  "uls": 5633,
  "\u0120Ukr": 5634,
  "asta": 5635,
  ".\u00e2\u0122\u013b": 5636,
  "ulf": 5637,
  "\u0120DR": 5638,
  "resa": 5639,
  "\u0120Ba": 5640,
  "AIM": 5641,
  "\u0120Ron": 5642,
  "xic": 5643,
  "rong": 5644,
  "erd": 5645,
  "rait": 5646,
  "\u0120Eth": 5647,
  "sz": 5648,
  "Env": 5649,
  "\u0120\u00c3\u00ae": 5650,
  "Pres": 5651,
  "\u00ea\u00b0": 5652,
  "News": 5653,
  "xB": 5654,
  "lab": 5655,
  "bra": 5656,
  "illy": 5657,
  "will": 5658,
  "\u0120Imp": 5659,
  "\u00db\u012e": 5660,
  "\u0120<>": 5661,
  "gg": 5662,
  "\u0120wet": 5663,
  "irms": 5664,
  "sis": 5665,
  "rig": 5666,
  "\u0120ges": 5667,
  "egr": 5668,
  "\u0120Ca": 5669,
  "AW": 5670,
  "\u0120Cru": 5671,
  "\u0120III": 5672,
  "omp": 5673,
  "Fill": 5674,
  "life": 5675,
  "}\")\u010a": 5676,
  "\u0120ii": 5677,
  "igs": 5678,
  "Rob": 5679,
  "\u00ec\u0142": 5680,
  "Best": 5681,
  "ITS": 5682,
  "\u0120\"--": 5683,
  "\u0120}}\"": 5684,
  "las": 5685,
  "\u0120Hun": 5686,
  "\u00d0\u00be\u00d0\u00b3": 5687,
  "bia": 5688,
  "\u0120ont": 5689,
  "\u0120Li": 5690,
  "\u0120:\u010a\u010a": 5691,
  "jax": 5692,
  "\u0120\u00e2\u0138": 5693,
  "\u0109y": 5694,
  "\u0120ly": 5695,
  "\u00c3\u00b1o": 5696,
  "ILED": 5697,
  "\u0120Pur": 5698,
  "vl": 5699,
  "\u0120twe": 5700,
  "\u00e6\u00b3": 5701,
  "cks": 5702,
  "\u00e2\u0136\u0122": 5703,
  "odd": 5704,
  "SR": 5705,
  "\u00d9\u012c": 5706,
  "\u00ec\u0126": 5707,
  "\u0120Did": 5708,
  "ucc": 5709,
  "\u0120Wal": 5710,
  "eam": 5711,
  "\u0120&=": 5712,
  "\u0120Ali": 5713,
  "tail": 5714,
  "\u0120adm": 5715,
  "Dev": 5716,
  "\u0120Ash": 5717,
  "FD": 5718,
  "Team": 5719,
  "\u0120asc": 5720,
  "Acc": 5721,
  "chi": 5722,
  "seg": 5723,
  "CLU": 5724,
  "\u0120Beh": 5725,
  "\u0120uid": 5726,
  "\u0120mx": 5727,
  "Loop": 5728,
  "who": 5729,
  "aki": 5730,
  "\u0120Yet": 5731,
  "ikip": 5732,
  "amps": 5733,
  "mal": 5734,
  "\u0120SDL": 5735,
  "anes": 5736,
  "Pol": 5737,
  "\u0120PH": 5738,
  "agem": 5739,
  "\u0120Bas": 5740,
  "adr": 5741,
  "iten": 5742,
  "\u0120uk": 5743,
  "xA": 5744,
  "\u00e6\u012f": 5745,
  "\u00e3\u0123\u0139": 5746,
  "ooks": 5747,
  "'''\u010a": 5748,
  "some": 5749,
  "\u0120za": 5750,
  "APP": 5751,
  "\u0120\"<<": 5752,
  "\u0120Sky": 5753,
  "\u0120'&": 5754,
  "ulty": 5755,
  "\u0120\u010a\u010a\u010a": 5756,
  "TODO": 5757,
  "\u0120Hor": 5758,
  "\u00d0\u00be\u00d0\u00ba": 5759,
  "=\u010a": 5760,
  "\u0120/.": 5761,
  "ylv": 5762,
  "\u0120hal": 5763,
  "AYER": 5764,
  "yyyy": 5765,
  "atin": 5766,
  "phen": 5767,
  "\u0120GR": 5768,
  "\u0120pag": 5769,
  "\u0120tou": 5770,
  "\u00e4\u00b8\u0122": 5771,
  "sim": 5772,
  "\u0120\".$": 5773,
  "\u0120Mu": 5774,
  "para": 5775,
  "Dto": 5776,
  "\u0120Was": 5777,
  "ICT": 5778,
  "\u0120pid": 5779,
  "\"){\u010a": 5780,
  "bold": 5781,
  "orer": 5782,
  "\u0120\u00e2\u0122\u0140": 5783,
  "\u0120bis": 5784,
  "egas": 5785,
  "\u0120ao": 5786,
  "fas": 5787,
  "\u0120BL": 5788,
  "\u0120'/'": 5789,
  "\u0120\u00c4\u0133": 5790,
  "\u0120MIT": 5791,
  "CODE": 5792,
  "ysql": 5793,
  "bro": 5794,
  "\u0120'*": 5795,
  "\u00e8\u00af\u00b7": 5796,
  "EF": 5797,
  "dep": 5798,
  "\u0120EV": 5799,
  "\u0120whe": 5800,
  "\u0120pup": 5801,
  "dbc": 5802,
  "teen": 5803,
  "TT": 5804,
  "een": 5805,
  "NI": 5806,
  "\u0120Inf": 5807,
  "\u00ec\u013c": 5808,
  "DTO": 5809,
  "\u0120\u00e0\u00a4": 5810,
  "\u00c3\u00b9": 5811,
  "BU": 5812,
  "unn": 5813,
  "\u00e2\u0126": 5814,
  "\u0120tub": 5815,
  "Cost": 5816,
  "\u00eb\u00a1": 5817,
  "gage": 5818,
  "emos": 5819,
  "\u00d0\u00b5\u00d0\u00ba": 5820,
  "enna": 5821,
  "lint": 5822,
  "\u00e6\u0142": 5823,
  "ENU": 5824,
  "BJ": 5825,
  "asty": 5826,
  "\u0120YOU": 5827,
  "lah": 5828,
  "Ctrl": 5829,
  "\u00e6\u012b": 5830,
  "\u0120Mur": 5831,
  "don": 5832,
  "\u0120FA": 5833,
  "fox": 5834,
  "])\u010d\u010a": 5835,
  "\u0120Dar": 5836,
  "SCRI": 5837,
  "\u0120unw": 5838,
  "\u0120Sea": 5839,
  "\u0120Jac": 5840,
  "Java": 5841,
  "\u0120kil": 5842,
  "lix": 5843,
  "ilty": 5844,
  "\u00e2\u0124\u00ac": 5845,
  "Buf": 5846,
  "\u0120Aud": 5847,
  "\u0109L": 5848,
  "Bus": 5849,
  "[];\u010a": 5850,
  "\u0120AG": 5851,
  "\u00c3\u00a9d": 5852,
  "sr": 5853,
  "ROW": 5854,
  "\u0120Unt": 5855,
  "\u00d1\u0128\u00d0\u00b8": 5856,
  "acao": 5857,
  "estr": 5858,
  "ahr": 5859,
  "\u0120liv": 5860,
  "\u0120ra": 5861,
  "slug": 5862,
  "\u00eb\u012c": 5863,
  "mu": 5864,
  "\u0120[_": 5865,
  "\u0120Tab": 5866,
  "\u00c3\u00a4n": 5867,
  "\"):\u010a": 5868,
  "etry": 5869,
  "adel": 5870,
  "\u0120Ram": 5871,
  "PHP": 5872,
  "cker": 5873,
  "Inv": 5874,
  "\u0120CSS": 5875,
  "cest": 5876,
  "icas": 5877,
  "IFY": 5878,
  "\u0120Tax": 5879,
  "Who": 5880,
  "svg": 5881,
  "\u00e2\u0138\u012a": 5882,
  "veh": 5883,
  "TA": 5884,
  "WM": 5885,
  "avid": 5886,
  "\u00e8\u00bd": 5887,
  "inos": 5888,
  "Good": 5889,
  "Cons": 5890,
  "\u00e7\u00bd": 5891,
  "\u0120foo": 5892,
  "amer": 5893,
  "\u0120AI": 5894,
  "\u0120ko": 5895,
  "CHAR": 5896,
  "\u0120tap": 5897,
  "DOM": 5898,
  "\u0120tea": 5899,
  "sha": 5900,
  "\u0120bir": 5901,
  "URRE": 5902,
  "\u0120Rog": 5903,
  "vp": 5904,
  "iph": 5905,
  "\u0120LLC": 5906,
  "iami": 5907,
  "Coll": 5908,
  "\u0120dar": 5909,
  "\u0120bow": 5910,
  "STEM": 5911,
  "\u0120CP": 5912,
  "ITLE": 5913,
  "unks": 5914,
  ".\";\u010a": 5915,
  "_);\u010a": 5916,
  "\u0120cd": 5917,
  "kind": 5918,
  "lica": 5919,
  "\u00e3\u0123\u00af": 5920,
  "ede": 5921,
  "\u0120Imm": 5922,
  "Exit": 5923,
  "\u0120sca": 5924,
  "\u0120aqu": 5925,
  "anti": 5926,
  "pd": 5927,
  "\u00e6\u0143": 5928,
  "Zone": 5929,
  "abis": 5930,
  "\u0120gal": 5931,
  "]{": 5932,
  "NET": 5933,
  "///\u010a": 5934,
  "vars": 5935,
  "bour": 5936,
  "\u00d0\u00b3": 5937,
  "\u0120Gi": 5938,
  "\u00ef\u00bd": 5939,
  "\u0120tum": 5940,
  "\u0120Az": 5941,
  "isse": 5942,
  "jet": 5943,
  "dam": 5944,
  "tele": 5945,
  "UTO": 5946,
  "};\u010d\u010a": 5947,
  "quiv": 5948,
  "iso": 5949,
  "obe": 5950,
  "curr": 5951,
  "asa": 5952,
  "\u0120Os": 5953,
  "bow": 5954,
  "%\u010a\u010a": 5955,
  "qa": 5956,
  "raf": 5957,
  "AI": 5958,
  "Ins": 5959,
  "\u0120SU": 5960,
  "\u0120Err": 5961,
  "inks": 5962,
  "GO": 5963,
  "..\u010a\u010a": 5964,
  "\u0120Spr": 5965,
  "audi": 5966,
  "gre": 5967,
  "\u0120Oil": 5968,
  "\u0120ses": 5969,
  "odge": 5970,
  "erts": 5971,
  "\u0120Esc": 5972,
  "\u0120DNA": 5973,
  "\u0120\",\"": 5974,
  "amar": 5975,
  "\u0120eu": 5976,
  "tw": 5977,
  "\u0120ow": 5978,
  "ICAL": 5979,
  "Conf": 5980,
  "\u0120arc": 5981,
  "\u0120nd": 5982,
  "ucks": 5983,
  "pic": 5984,
  "\u0120hi": 5985,
  "BN": 5986,
  "\u00e5\u00af": 5987,
  "\u0120mul": 5988,
  "AMES": 5989,
  "Cmd": 5990,
  "\u0120__(": 5991,
  "\"\u010a\u010a\u010a": 5992,
  "Tile": 5993,
  "\u0120\"*": 5994,
  "whel": 5995,
  "Big": 5996,
  "Urls": 5997,
  "\u0120Jr": 5998,
  "nl": 5999,
  "\u0120HER": 6000,
  "\u00c5\u00bce": 6001,
  "van": 6002,
  "TV": 6003,
  "dst": 6004,
  "emes": 6005,
  "ogy": 6006,
  "ADD": 6007,
  "Chat": 6008,
  "']\u010a\u010a": 6009,
  "\u0142\u0123": 6010,
  "\u0120Pa": 6011,
  "Bed": 6012,
  "\u0120Du": 6013,
  "\u00e2\u0122\u012d": 6014,
  "\u0120Hol": 6015,
  "\u00e3\u0125\u00b3": 6016,
  "SK": 6017,
  "uni": 6018,
  "ghan": 6019,
  "\u0109id": 6020,
  "atre": 6021,
  "\u0120$('": 6022,
  "agg": 6023,
  "\u0120ske": 6024,
  "\u0120cry": 6025,
  "\u0120UIL": 6026,
  "ubs": 6027,
  "\u0120ml": 6028,
  "\u0120bat": 6029,
  "LOT": 6030,
  ")\",\u010a": 6031,
  "\u0120Las": 6032,
  "egan": 6033,
  "xD": 6034,
  "thew": 6035,
  "},\u010a\u010a": 6036,
  "\u00e3\u0123\u00ae": 6037,
  "gent": 6038,
  "umbs": 6039,
  "TK": 6040,
  "cial": 6041,
  "proc": 6042,
  "sten": 6043,
  "USED": 6044,
  "\u00e5\u00b0": 6045,
  "\u0109\u010a\u010a": 6046,
  "\u0120fib": 6047,
  "\u0120Hel": 6048,
  "\u0120'.$": 6049,
  "\u0120tow": 6050,
  "\u0120ADD": 6051,
  "\u0120ARE": 6052,
  "\u00e8\u00be": 6053,
  "\u0120Wis": 6054,
  "ICES": 6055,
  "ETCH": 6056,
  "BACK": 6057,
  "isor": 6058,
  "\u0120*((": 6059,
  "cnt": 6060,
  "\u0120Sa": 6061,
  "CPP": 6062,
  "best": 6063,
  "\u00d0\u00b0\u00d0\u00ba": 6064,
  "\u0120sha": 6065,
  "\u0120css": 6066,
  "Stat": 6067,
  "TRL": 6068,
  "\u0120Hit": 6069,
  "upid": 6070,
  "\u0120joy": 6071,
  "mma": 6072,
  "\u00e2\u0124": 6073,
  "pf": 6074,
  "\u0120\"\\\"": 6075,
  "\u0120(&": 6076,
  "omo": 6077,
  "\u012a\u013a": 6078,
  "zed": 6079,
  "%;\u010a": 6080,
  "arms": 6081,
  "REAM": 6082,
  "\u00eb\u00a5": 6083,
  "\u0120XCT": 6084,
  "Tags": 6085,
  "\u0120Iss": 6086,
  "acht": 6087,
  "sin": 6088,
  "\u0120NUM": 6089,
  "\u00e4\u00b8\u0143": 6090,
  "\u0120:+:": 6091,
  "\u00d0\u00b0\u00d0\u00bb": 6092,
  "\u0120Ly": 6093,
  "IBUT": 6094,
  "lap": 6095,
  "quer": 6096,
  "heap": 6097,
  "LOSE": 6098,
  "anim": 6099,
  "oen": 6100,
  "eman": 6101,
  "\u0109U": 6102,
  "His": 6103,
  "hd": 6104,
  "born": 6105,
  "uta": 6106,
  "Cr": 6107,
  "\u0120nod": 6108,
  "Tip": 6109,
  "ANK": 6110,
  "\u0120FC": 6111,
  "km": 6112,
  "\u0120URI": 6113,
  "AMP": 6114,
  "ARI": 6115,
  "yo": 6116,
  "\u0120zum": 6117,
  "\u0120ED": 6118,
  "\u0120jur": 6119,
  "\u00e6\u012f\u00ae": 6120,
  "Expr": 6121,
  "\u0120iOS": 6122,
  "isch": 6123,
  "\u0120Ms": 6124,
  "\u0120Fun": 6125,
  "\u00c3\u00bcn": 6126,
  "\u0120SY": 6127,
  "urd": 6128,
  "ivot": 6129,
  "\u0120NAS": 6130,
  "{}\u010a": 6131,
  "\u00c3\u0143t": 6132,
  "\u0120Bat": 6133,
  "\u00d0\u00b8\u00d0\u00bc": 6134,
  "mid": 6135,
  "ogg": 6136,
  "\u00e2\u0126\u00a2": 6137,
  "bul": 6138,
  "\u0120wir": 6139,
  "\u00c4\u00b1n": 6140,
  "dot": 6141,
  "was": 6142,
  "GA": 6143,
  "\u0120kit": 6144,
  "\u0120SUB": 6145,
  "\u0120ore": 6146,
  "refs": 6147,
  "big": 6148,
  "\u00d9\u0129": 6149,
  "\u00e7\u013d": 6150,
  "\u00e3\u0123\u00a7": 6151,
  "\u0120NEW": 6152,
  "\u0120Mah": 6153,
  "\u0120kv": 6154,
  "\u0120Boy": 6155,
  "\u00ed\u0137\u013a": 6156,
  "Na": 6157,
  "\u00d0\u0134": 6158,
  "FB": 6159,
  "\u0120Num": 6160,
  "iy": 6161,
  "brid": 6162,
  "atan": 6163,
  "ENC": 6164,
  "\u0120\u00ec\u0140": 6165,
  "vely": 6166,
  "\u0120IR": 6167,
  "oven": 6168,
  "Face": 6169,
  "rell": 6170,
  "\u0120Sus": 6171,
  "IER": 6172,
  "\u0120ME": 6173,
  "uno": 6174,
  "TURN": 6175,
  "orce": 6176,
  "irq": 6177,
  "emen": 6178,
  "\u00d0\u00be\u00d0\u00b9": 6179,
  "\u0120git": 6180,
  "orph": 6181,
  "\u0120Dam": 6182,
  "XY": 6183,
  "\u0120Ak": 6184,
  "/*\u010d\u010a": 6185,
  "\u0120tb": 6186,
  "\u0120Ah": 6187,
  "oped": 6188,
  "FX": 6189,
  "UAL": 6190,
  "Side": 6191,
  "odos": 6192,
  "\u0120ai": 6193,
  "\u0120Fil": 6194,
  "emed": 6195,
  "scan": 6196,
  "MIN": 6197,
  "yt": 6198,
  "'}\u010a": 6199,
  "\u0120lbl": 6200,
  "\u0120Det": 6201,
  "aco": 6202,
  "wall": 6203,
  "\u0120GUI": 6204,
  "EGIN": 6205,
  "cost": 6206,
  "nce": 6207,
  "ISH": 6208,
  "\u0120Kr": 6209,
  "\u0120.\u010a": 6210,
  "\u0120nam": 6211,
  "\u0120{},": 6212,
  "yal": 6213,
  "\u0120/=": 6214,
  "\u0109k": 6215,
  "\u0120Ros": 6216,
  "\u0120fet": 6217,
  "gal": 6218,
  "cpu": 6219,
  "\u00e7\u0142\u0123": 6220,
  "oku": 6221,
  "ulum": 6222,
  "\u00e5\u0130": 6223,
  "\u0120ka": 6224,
  "deg": 6225,
  "rgb": 6226,
  "\u0120):": 6227,
  "ROL": 6228,
  "\u0120bb": 6229,
  "GS": 6230,
  "DL": 6231,
  "\u00e4\u00b8\u012f": 6232,
  "irty": 6233,
  "Del": 6234,
  "\u0120jaw": 6235,
  "\u0120DI": 6236,
  "peer": 6237,
  "\u0120kon": 6238,
  "\u0120esp": 6239,
  "\u0120Hon": 6240,
  "iga": 6241,
  "\u0120Opt": 6242,
  "wan": 6243,
  "\u00eb\u012c\u0136": 6244,
  "PAR": 6245,
  "orte": 6246,
  "enta": 6247,
  "\u0120Ul": 6248,
  "\u0120bab": 6249,
  "\u00e3\u0123\u0126": 6250,
  "\u0120SA": 6251,
  "\u0120wy": 6252,
  "DX": 6253,
  "\u0120jet": 6254,
  "enz": 6255,
  "vd": 6256,
  "\u0120###": 6257,
  "\u0120Ng": 6258,
  "\u0120\u00c2\u00a7": 6259,
  "icos": 6260,
  "\u00e6\u0138\u00b0": 6261,
  "wi": 6262,
  "\u00e7\u012b": 6263,
  "Push": 6264,
  "\u00c3\u00a9m": 6265,
  "\u0120nb": 6266,
  "pb": 6267,
  "\u0120FR": 6268,
  "lide": 6269,
  "apol": 6270,
  "\u0120')": 6271,
  "hes": 6272,
  "inen": 6273,
  "\u0120rt": 6274,
  "OCK": 6275,
  "SB": 6276,
  "\u00c3\u00a1t": 6277,
  "Guid": 6278,
  "nom": 6279,
  "bec": 6280,
  "Fire": 6281,
  "\u0120MIN": 6282,
  "Mail": 6283,
  "Cur": 6284,
  "\"}\u010a": 6285,
  "mock": 6286,
  "\u00e3\u0123\u00be": 6287,
  "nh": 6288,
  "ahl": 6289,
  "utas": 6290,
  "\u0120mai": 6291,
  "hu": 6292,
  "\u00e6\u0138\u0129": 6293,
  "\u00ec\u00a7": 6294,
  "\u00d0\u00ba\u00d0\u00b8": 6295,
  "Age": 6296,
  "FIN": 6297,
  "\u0120\u00ec\u013f": 6298,
  "erk": 6299,
  "atto": 6300,
  "\u0120Sir": 6301,
  "IGH": 6302,
  "iste": 6303,
  "\u0120\u00ea\u00b0": 6304,
  "Gu": 6305,
  "even": 6306,
  "chr": 6307,
  "EVER": 6308,
  "\u0120SL": 6309,
  "CU": 6310,
  "\u00c5\u0133": 6311,
  "\u0120ini": 6312,
  "\u0120Ur": 6313,
  "\u0120Pod": 6314,
  "disc": 6315,
  "alam": 6316,
  "\u0120IV": 6317,
  "\u00e2\u013b": 6318,
  "phi": 6319,
  "cers": 6320,
  "\u0120pou": 6321,
  "irs": 6322,
  "SW": 6323,
  "oca": 6324,
  "odb": 6325,
  "\u00d0\u0141": 6326,
  "\u0120YY": 6327,
  "\u0120jew": 6328,
  "\u00e4\u00b8\u012d": 6329,
  "aska": 6330,
  "\u0120Und": 6331,
  "wich": 6332,
  "\u0120\"/\"": 6333,
  "sb": 6334,
  "ths": 6335,
  "OLE": 6336,
  "\u0120EM": 6337,
  "tit": 6338,
  "\u0120bio": 6339,
  "orne": 6340,
  "\u0120}.": 6341,
  "`;\u010a": 6342,
  "ilon": 6343,
  "puts": 6344,
  ")',\u010a": 6345,
  "alc": 6346,
  "+\u010a": 6347,
  "\u0120Su": 6348,
  "\u0120cig": 6349,
  "\u0120\u00c3\u00b6": 6350,
  "\u0120Fac": 6351,
  "wen": 6352,
  "EDIT": 6353,
  "\u0120unn": 6354,
  "\u0120Inn": 6355,
  "oids": 6356,
  "\u00d0\u00b6": 6357,
  "ahoo": 6358,
  "Win": 6359,
  "irus": 6360,
  "izon": 6361,
  "puty": 6362,
  "TD": 6363,
  "\u0109Q": 6364,
  "ismo": 6365,
  "\u0120Dou": 6366,
  "idas": 6367,
  "HA": 6368,
  "iert": 6369,
  "\u0120TX": 6370,
  "bank": 6371,
  "]),\u010a": 6372,
  "need": 6373,
  "ARS": 6374,
  "\u00e6\u0122": 6375,
  "Week": 6376,
  ">(\u010a": 6377,
  "\u0120bs": 6378,
  "Det": 6379,
  "nome": 6380,
  "Bad": 6381,
  "HR": 6382,
  "iza": 6383,
  "\u0120\u00c2\u0142": 6384,
  "\u0120Dub": 6385,
  "\u0120vie": 6386,
  "\u0109J": 6387,
  "\u0120LP": 6388,
  "\u0120MPI": 6389,
  "aca": 6390,
  "\u00c3\u00b8r": 6391,
  "\u0120ade": 6392,
  "quee": 6393,
  "ABEL": 6394,
  "vet": 6395,
  "Ant": 6396,
  "uuid": 6397,
  "\u0120tc": 6398,
  "isan": 6399,
  "\u0120Ut": 6400,
  "\u0120nas": 6401,
  "\u0120px": 6402,
  "ekt": 6403,
  "\u0120{//": 6404,
  "KN": 6405,
  "\u00e5\u00b7": 6406,
  "\u00e5\u00be": 6407,
  "\u0120***": 6408,
  "\u0120tk": 6409,
  "EMPL": 6410,
  "aro": 6411,
  "\u00e5\u012a\u0128": 6412,
  "boy": 6413,
  "\u0120Lew": 6414,
  "!\"\u010a\u010a": 6415,
  "\u0109re": 6416,
  "olen": 6417,
  "\u0120Seg": 6418,
  "DUCT": 6419,
  "ulse": 6420,
  "\u00e3\u0123\u013b": 6421,
  "\u0120Wi": 6422,
  "coll": 6423,
  "\u0120Uri": 6424,
  "THE": 6425,
  "onde": 6426,
  "\u0120{/*": 6427,
  "\u0120ger": 6428,
  "\u0120=\"": 6429,
  "Sal": 6430,
  "sf": 6431,
  "Term": 6432,
  "bell": 6433,
  "\u00e5\u0127\u00a5": 6434,
  "lc": 6435,
  "\u0120EL": 6436,
  "rett": 6437,
  "WISE": 6438,
  "\u00d0\u00b0\u00d1\u0122": 6439,
  "\u0120Ho": 6440,
  "PACK": 6441,
  "\u0120hem": 6442,
  "\u0120\u00d7": 6443,
  "\u0120//$": 6444,
  "ANY": 6445,
  "ERO": 6446,
  "\u0120Tra": 6447,
  "\u0109W": 6448,
  "\u0120'--": 6449,
  "\u0120\u00d1\u0129": 6450,
  "hex": 6451,
  "\u0120pb": 6452,
  "\u0120zur": 6453,
  "\u0120vag": 6454,
  "\u00d0\u00be\u00d0\u00bd": 6455,
  "\u0120mr": 6456,
  "\u0120cpu": 6457,
  "\u0120ak": 6458,
  "\u0120nic": 6459,
  "\u0120tm": 6460,
  "\u0120glm": 6461,
  "\u00e4\u00ba\u00ba": 6462,
  "\u0120alg": 6463,
  "PRE": 6464,
  "\u0120Cat": 6465,
  "Es": 6466,
  "\u0120Kat": 6467,
  "etr": 6468,
  "todo": 6469,
  "\u00eb\u00a1\u013e": 6470,
  "\u0120\u00cf": 6471,
  "\u0120NBA": 6472,
  "orr": 6473,
  "eren": 6474,
  "dn": 6475,
  "PTY": 6476,
  "\u0120*)\u010a": 6477,
  "\u00e5\u0133": 6478,
  "\u00e5\u012c\u0141": 6479,
  "inda": 6480,
  "Fact": 6481,
  "yard": 6482,
  "\u00e4\u00bc": 6483,
  "\u0109in": 6484,
  "\u0120($_": 6485,
  "\u0109V": 6486,
  "\u00e4\u00b8\u012c": 6487,
  "\u0120Sep": 6488,
  "Done": 6489,
  "eln": 6490,
  "POS": 6491,
  "\u00e7\u00a4": 6492,
  "\u00e7\u00ac": 6493,
  "lesh": 6494,
  "\u0120Pin": 6495,
  "\u00c3\u00a7a": 6496,
  "\u0120\u0109\u010a": 6497,
  "?>\u010a\u010a": 6498,
  "bean": 6499,
  "\u0120SV": 6500,
  "Buy": 6501,
  "NUM": 6502,
  "\u0120pg": 6503,
  "\u0120iv": 6504,
  "fade": 6505,
  "\u0120Typ": 6506,
  "\u00e6\u012a\u00b7": 6507,
  "flix": 6508,
  "ento": 6509,
  "\u0120Cit": 6510,
  "\u0120Nic": 6511,
  "={\u010a": 6512,
  "\u0120;\u010d\u010a": 6513,
  "mann": 6514,
  "WD": 6515,
  "\u0120Som": 6516,
  "\u0120)}\u010a": 6517,
  "\u00c3\u0139": 6518,
  "iac": 6519,
  "\u0120rv": 6520,
  "\u0120\u00d1\u0126": 6521,
  "\u0120\u00e3\u0124": 6522,
  "\u0120nat": 6523,
  "\u0120Tal": 6524,
  "Site": 6525,
  "BT": 6526,
  "\u0120slo": 6527,
  "rat": 6528,
  "\u0120?\u010a": 6529,
  "\u0120OFF": 6530,
  "RF": 6531,
  "\u0120sty": 6532,
  "tery": 6533,
  "tax": 6534,
  "MAP": 6535,
  "\u0120Mrs": 6536,
  "\u0120ws": 6537,
  "DI": 6538,
  "\u0120}//": 6539,
  "\u0120Sin": 6540,
  "maps": 6541,
  "\u00e2\u013a": 6542,
  "\u010a\u0109\u010a": 6543,
  "\u0120fut": 6544,
  "phia": 6545,
  "\u0120NT": 6546,
  "kel": 6547,
  "Ali": 6548,
  "\u0120//!": 6549,
  "\u0120hay": 6550,
  "\u0120Fa": 6551,
  "\u0120rol": 6552,
  "\u0120Ten": 6553,
  "\u0120jun": 6554,
  "inge": 6555,
  "\u00e4\u00b8\u00ba": 6556,
  "\u00ea\u00b8": 6557,
  "hero": 6558,
  "\u0120dia": 6559,
  "\u0120TIM": 6560,
  "\u0120\u00e2\u0122\u013b": 6561,
  "\u0120Cy": 6562,
  "este": 6563,
  "dit": 6564,
  "\u00d0\u00b0\u00d0\u00b2": 6565,
  "\u0120dad": 6566,
  "ropy": 6567,
  "\u0120\\(": 6568,
  "\u0120ET": 6569,
  "lm": 6570,
  "echa": 6571,
  "DATA": 6572,
  "UA": 6573,
  "\u00e4\u00b9": 6574,
  "tech": 6575,
  "\u0120VM": 6576,
  "\u0120oc": 6577,
  "bas": 6578,
  "\u0120Hay": 6579,
  "iley": 6580,
  "SV": 6581,
  "roat": 6582,
  "\u0120lon": 6583,
  "bp": 6584,
  "ACHE": 6585,
  "azi": 6586,
  "Ear": 6587,
  "Take": 6588,
  "gres": 6589,
  "\u0120Ont": 6590,
  "pus": 6591,
  "\u0120ram": 6592,
  "\u0120[(": 6593,
  "enny": 6594,
  "\u0120gel": 6595,
  "!\u00e2\u0122\u013f": 6596,
  "LA": 6597,
  "\u00c2\u00a7": 6598,
  "\u0120tt": 6599,
  "\u0120PER": 6600,
  "udy": 6601,
  "\u0120gut": 6602,
  "\u0120Sov": 6603,
  "\u0120<?=": 6604,
  "\u00ec\u013f\u0126": 6605,
  "\u00e9\u0139\u00b4": 6606,
  "\u0120Gro": 6607,
  "\u0120Aw": 6608,
  "prim": 6609,
  ":{\u010a": 6610,
  "PN": 6611,
  "\u00c3\u00a5r": 6612,
  "\u0120ic": 6613,
  "Drag": 6614,
  "\u0120hd": 6615,
  "\u0120ub": 6616,
  "ARM": 6617,
  "\u0120APP": 6618,
  "\u0120bc": 6619,
  "igt": 6620,
  "Boot": 6621,
  "arga": 6622,
  "\u0120SN": 6623,
  "WR": 6624,
  "\u0120td": 6625,
  "Lng": 6626,
  "\u0120viv": 6627,
  "\u00d0\u00b0\u00d1\u0123": 6628,
  "hl": 6629,
  "\u0120\u00c3\u00ba": 6630,
  "ests": 6631,
  "\u0120Rh": 6632,
  "\u0120(+": 6633,
  "jpg": 6634,
  "Comm": 6635,
  "\u0120eps": 6636,
  "\u0120cz": 6637,
  "\u00e5\u0131\u00b7": 6638,
  "\u0120rgb": 6639,
  "Zero": 6640,
  "lyn": 6641,
  "pson": 6642,
  "UILD": 6643,
  "\u0120hr": 6644,
  "\u0120fel": 6645,
  "\u0120Cub": 6646,
  "\u0120sq": 6647,
  "\u0120BC": 6648,
  "ilo": 6649,
  "\u0120pes": 6650,
  "\u0120DOM": 6651,
  "mate": 6652,
  "Oct": 6653,
  "\u00ec\u012c": 6654,
  "\u0120tut": 6655,
  "tbl": 6656,
  "\u0120Ein": 6657,
  "cls": 6658,
  "\u0120Bes": 6659,
  "nb": 6660,
  "mx": 6661,
  "\u0120\u00c3\u00a7": 6662,
  "\u0120CM": 6663,
  "\u0120DVD": 6664,
  "\u0120BBC": 6665,
  "\u0120tp": 6666,
  "cin": 6667,
  "csv": 6668,
  ">/": 6669,
  "\u0120GOP": 6670,
  "lad": 6671,
  "\u0120\u00d1\u0122": 6672,
  "\u0120});": 6673,
  "\u0120Cos": 6674,
  "\u0120tak": 6675,
  "\u0120ESP": 6676,
  "\u0120INC": 6677,
  "into": 6678,
  "\u0120vid": 6679,
  "TIME": 6680,
  "\u0120tie": 6681,
  "\u0120\u00e9": 6682,
  "jud": 6683,
  "\u0120hip": 6684,
  "\u00e5\u0131\u0138": 6685,
  "\u0120IE": 6686,
  "hou": 6687,
  "\u0120bom": 6688,
  "fish": 6689,
  "oret": 6690,
  "Die": 6691,
  "\u0120SS": 6692,
  "RGB": 6693,
  "uset": 6694,
  "onda": 6695,
  "\u0120!(": 6696,
  "\u00c3\u00b1os": 6697,
  "\u0120-\u010a": 6698,
  "FW": 6699,
  "\u0120MY": 6700,
  "\u0120fer": 6701,
  "untu": 6702,
  "\u0120Ven": 6703,
  "\u0120Cou": 6704,
  "\u0120fur": 6705,
  "resp": 6706,
  "\u0120NAT": 6707,
  "\u0120pu": 6708,
  "\u0120Yii": 6709,
  "`;\u010a\u010a": 6710,
  "={{\u010a": 6711,
  "\u0120BB": 6712,
  "\u0120Oak": 6713,
  "Old": 6714,
  "\u0120TE": 6715,
  "\u0120ray": 6716,
  "DK": 6717,
  "\u0120jed": 6718,
  "oro": 6719,
  "\u0120'[": 6720,
  "Jan": 6721,
  "\u0109N": 6722,
  "apa": 6723,
  "\u00c3\u00b1a": 6724,
  "Rep": 6725,
  "MIT": 6726,
  "],\u010d\u010a": 6727,
  "obi": 6728,
  "PLAY": 6729,
  "agan": 6730,
  "yz": 6731,
  "rix": 6732,
  "may": 6733,
  "\u0120Lu": 6734,
  "\u0120rg": 6735,
  "\u0120Nut": 6736,
  "\u0120Ga": 6737,
  "']:\u010a": 6738,
  "tb": 6739,
  "\u0109st": 6740,
  "\u0120[{\u010a": 6741,
  "\u00e5\u013d\u0140": 6742,
  "fail": 6743,
  "\u00eb\u00a5\u00bc": 6744,
  "\u0120fu": 6745,
  "SY": 6746,
  "\u0120Arr": 6747,
  "pag": 6748,
  "':\u010d\u010a": 6749,
  "unci": 6750,
  "nama": 6751,
  "olds": 6752,
  "\u0120Bow": 6753,
  "MR": 6754,
  "BASE": 6755,
  "WT": 6756,
  "\u0120aan": 6757,
  "dog": 6758,
  "),\u010a\u010a": 6759,
  "\u0120civ": 6760,
  "obuf": 6761,
  "\u0120[{": 6762,
  "WORK": 6763,
  "\u00c5\u013dci": 6764,
  "loom": 6765,
  "\u0120MI": 6766,
  "\u0120Ra": 6767,
  "\u0120oct": 6768,
  "\u00e5\u013e\u00a8": 6769,
  "\u0120RET": 6770,
  "\u0120Fif": 6771,
  "\u00c3\u00a9l": 6772,
  "\u00e6\u0130": 6773,
  "xxxx": 6774,
  "ethe": 6775,
  "opes": 6776,
  "\u0120%.": 6777,
  "\u00d0\u00b0\u00d0\u00b9": 6778,
  "\u0120\u00c3\u00aen": 6779,
  "\u0109q": 6780,
  "\u013b\u0124": 6781,
  "good": 6782,
  "LI": 6783,
  "\u00e9\u00a1\u00b5": 6784,
  "\u0120kt": 6785,
  "]],\u010a": 6786,
  "\u0120CUR": 6787,
  "zens": 6788,
  "anco": 6789,
  "xs": 6790,
  "\u0120CT": 6791,
  "\u0120lp": 6792,
  "\u0120\u00ec\u0142": 6793,
  "AIT": 6794,
  "Prof": 6795,
  "\u0120\u00c3\u00a4r": 6796,
  "\u0120Bus": 6797,
  "\u0120wis": 6798,
  "\u00e5\u0143\u0139": 6799,
  "\u0120Om": 6800,
  "\u0120\u0120\u010a\u010a": 6801,
  "umes": 6802,
  "\u00e0\u00b9\u012a": 6803,
  "\u0120egg": 6804,
  "cles": 6805,
  "`.\u010a": 6806,
  "spot": 6807,
  "also": 6808,
  "Hey": 6809,
  "\u0120ib": 6810,
  "\u0120MOD": 6811,
  "\u00d0\u00b0\u00d0\u00b7": 6812,
  "safe": 6813,
  "icit": 6814,
  "\u0120Clo": 6815,
  "\u0120Six": 6816,
  "gets": 6817,
  "\u0120gtk": 6818,
  "ned": 6819,
  "\u0120Bru": 6820,
  "\u0120\u00c3\u00a1": 6821,
  "hard": 6822,
  "\u0120tel": 6823,
  "emit": 6824,
  "Cast": 6825,
  "NECT": 6826,
  "\u0120rb": 6827,
  "wr": 6828,
  "\u0120hub": 6829,
  "Arch": 6830,
  "\u0120cub": 6831,
  "uar": 6832,
  "ajo": 6833,
  "iu": 6834,
  "\u0120meg": 6835,
  "\u0120zo": 6836,
  "\u0120s\u00c3\u00a9": 6837,
  "AO": 6838,
  "\u0120gem": 6839,
  "pton": 6840,
  "ijk": 6841,
  "({\u010d\u010a": 6842,
  "nan": 6843,
  "}/>\u010a": 6844,
  "UInt": 6845,
  "Mean": 6846,
  "dney": 6847,
  "\u00c3\u0125": 6848,
  "IVER": 6849,
  "_\u010a\u010a": 6850,
  "VR": 6851,
  "\u0120BR": 6852,
  "\u0120Inv": 6853,
  "\u0120gym": 6854,
  "Mem": 6855,
  "ioni": 6856,
  "WEB": 6857,
  "\u00e6\u013e\u012b": 6858,
  "\u0120dil": 6859,
  "\u0120lst": 6860,
  "Qt": 6861,
  "SDL": 6862,
  "alia": 6863,
  "iere": 6864,
  "\u0109cin": 6865,
  "iffs": 6866,
  "igne": 6867,
  "\u00c3\u00a9g": 6868,
  "\u0120GB": 6869,
  "\u0120lb": 6870,
  "elem": 6871,
  "\u0120Pos": 6872,
  "Flow": 6873,
  "sudo": 6874,
  "tesy": 6875,
  "\u0120Et": 6876,
  "\u0120ay": 6877,
  "Leg": 6878,
  "\u0120Jay": 6879,
  "vr": 6880,
  "cow": 6881,
  "\u00c6\u00b0": 6882,
  "\u0109ft": 6883,
  "\u00d0\u00b8\u00d0\u00bd": 6884,
  "Nov": 6885,
  "\u00ce\u00b1": 6886,
  "\u00e4\u00b8\u00aa": 6887,
  ">()\u010a": 6888,
  "\u0120ox": 6889,
  "ncia": 6890,
  "orts": 6891,
  "eye": 6892,
  "\u0120sr": 6893,
  "\u0120\";": 6894,
  "icky": 6895,
  "SN": 6896,
  "leet": 6897,
  "\u0120Mot": 6898,
  "WW": 6899,
  "\u0120\u00e2\u0122\u013f": 6900,
  "\u0120ali": 6901,
  "\u0120rm": 6902,
  "\u0120Das": 6903,
  "\u0120han": 6904,
  "\u00c3\u00a1l": 6905,
  "\u0120ny": 6906,
  "have": 6907,
  "\u0120Nob": 6908,
  "lr": 6909,
  "jar": 6910,
  "aja": 6911,
  "\u0120\u00ce\u00b1": 6912,
  "edi": 6913,
  "\u0120lip": 6914,
  "\u0120Ih": 6915,
  "\u0120nec": 6916,
  "ATEG": 6917,
  "walk": 6918,
  "Nil": 6919,
  "vez": 6920,
  "\u0120EP": 6921,
  "\u00d0\u00b0\u00d0\u00bf": 6922,
  "\u0120Ale": 6923,
  "\u0120MT": 6924,
  "\u00e7\u00b1": 6925,
  "ifle": 6926,
  "\u0120cel": 6927,
  "kn": 6928,
  "sure": 6929,
  "pot": 6930,
  "ICS": 6931,
  "Put": 6932,
  ")\")\u010a": 6933,
  "gui": 6934,
  "\u0120rx": 6935,
  "EA": 6936,
  "\u00e8\u00a7": 6937,
  "ELL": 6938,
  "\u0120ine": 6939,
  "beta": 6940,
  ">\"\u010a": 6941,
  "athy": 6942,
  "HD": 6943,
  "\u00c5\u0126": 6944,
  "anie": 6945,
  "wind": 6946,
  "ieve": 6947,
  "ATER": 6948,
  "OTE": 6949,
  "MY": 6950,
  "\u0120VR": 6951,
  "\u0120GM": 6952,
  "aug": 6953,
  "\u00e3\u0123\u00a8": 6954,
  "olas": 6955,
  "kk": 6956,
  "\u0120mic": 6957,
  "Same": 6958,
  "\u0120Xml": 6959,
  "rxjs": 6960,
  "\u0120Rs": 6961,
  "\u0120Mix": 6962,
  "sal": 6963,
  "\u0120mc": 6964,
  "\u0120gui": 6965,
  "\u0120Fab": 6966,
  "\u0120))\u010a": 6967,
  "\u0120Bry": 6968,
  "acs": 6969,
  "\u00e9\u00a2": 6970,
  "akan": 6971,
  "\u0120\u0120\u0109": 6972,
  "ROP": 6973,
  "\u0120ej": 6974,
  "ilst": 6975,
  "det": 6976,
  "\u0120ES": 6977,
  "\u0120IC": 6978,
  "vere": 6979,
  "Sk": 6980,
  "nnen": 6981,
  "\u0109val": 6982,
  "\u0120aug": 6983,
  "pal": 6984,
  "iah": 6985,
  "\u00d0\u00a1": 6986,
  "Hub": 6987,
  "\u0120IND": 6988,
  "\u0120Ped": 6989,
  "uras": 6990,
  "\u0109url": 6991,
  "\u0120Tro": 6992,
  "`\u010a\u010a": 6993,
  "\u0120*_": 6994,
  "\u0120sua": 6995,
  "atas": 6996,
  "@\u010a\u010a": 6997,
  "\u00d1\u0126": 6998,
  "\u00c3\u00bcck": 6999,
  "\u0120ABC": 7000,
  "\u0120cow": 7001,
  "COL": 7002,
  "\u0120PT": 7003,
  "Anim": 7004,
  "anga": 7005,
  "\u0120ig": 7006,
  "Turn": 7007,
  "\u00ec\u0139\u0132": 7008,
  "auge": 7009,
  "\u0120jak": 7010,
  "\u0120dc": 7011,
  "\u00e4\u00bd\u013e": 7012,
  "\u0120sab": 7013,
  "\u0120cad": 7014,
  "\u0120Bal": 7015,
  ">;\u010a\u010a": 7016,
  "ulus": 7017,
  "FI": 7018,
  "Inf": 7019,
  "Keep": 7020,
  "itis": 7021,
  "Sex": 7022,
  "Argb": 7023,
  "vide": 7024,
  "\u0120spo": 7025,
  "\u00e5\u0122": 7026,
  "Er": 7027,
  "\u0120\u00e5\u012a": 7028,
  "\u0120ye": 7029,
  "MBOL": 7030,
  "ativ": 7031,
  "Hit": 7032,
  "OO": 7033,
  "acco": 7034,
  "\u0120LL": 7035,
  "\u0120CAN": 7036,
  "MAIL": 7037,
  "USH": 7038,
  "cli": 7039,
  "Fail": 7040,
  "hor": 7041,
  "DAO": 7042,
  "oa": 7043,
  "[]\u010a": 7044,
  "eron": 7045,
  "\u0120nou": 7046,
  "\u00e6\u0140": 7047,
  "\u0120nin": 7048,
  "\u0120USD": 7049,
  "Mac": 7050,
  "wm": 7051,
  "inux": 7052,
  "Mich": 7053,
  "udge": 7054,
  "ATAB": 7055,
  "\u00e4\u00be": 7056,
  "\u0109map": 7057,
  "MSG": 7058,
  "\u0120Flo": 7059,
  "osed": 7060,
  "\u0120+\u010d\u010a": 7061,
  "CV": 7062,
  "\u0120bt": 7063,
  "===\u010a": 7064,
  "\u0120ls": 7065,
  "Aut": 7066,
  "bury": 7067,
  "\u00e2\u0122\u013b,": 7068,
  "\u0120\u00c3\u00aa": 7069,
  "\u0120ML": 7070,
  "Sen": 7071,
  "nr": 7072,
  "\u00c3\u00bd": 7073,
  "nm": 7074,
  "bu": 7075,
  "\u00d0\u00be\u00d0\u00b7": 7076,
  "\u0120dd": 7077,
  "\u0120Cut": 7078,
  "\u00e3\u0123\u00ab": 7079,
  "aque": 7080,
  "\u0120flu": 7081,
  "irts": 7082,
  "\u00c3\u00a9c": 7083,
  "\u00e3\u0125\u012a": 7084,
  "\u0120WE": 7085,
  "LAB": 7086,
  "oned": 7087,
  "\u0120:=\u010a": 7088,
  "\u0120Arc": 7089,
  "oses": 7090,
  "\u0120Ath": 7091,
  "PF": 7092,
  "\u0120Bag": 7093,
  "\u0120avg": 7094,
  "\u0120Fix": 7095,
  "Spe": 7096,
  "arma": 7097,
  "\u00e7\u0132": 7098,
  "\u0120sle": 7099,
  "prod": 7100,
  "\u0120Spi": 7101,
  "bone": 7102,
  "FACE": 7103,
  "ench": 7104,
  "\u00d1\u0122\u00d1\u0125": 7105,
  "\u0120CNN": 7106,
  "\u0120hes": 7107,
  "buy": 7108,
  "sur": 7109,
  "omm": 7110,
  "\u0120(\\": 7111,
  "two": 7112,
  "osex": 7113,
  "\u00e7\u00a4\u00ba": 7114,
  "Shop": 7115,
  "\u0120ASC": 7116,
  "\u0120*\u010a\u010a": 7117,
  "\u0120BM": 7118,
  "\u0120Por": 7119,
  "\u0120Moh": 7120,
  "VRT": 7121,
  "\u0120Amb": 7122,
  "\u0120pit": 7123,
  "arte": 7124,
  "\u00e0\u00b9\u012b": 7125,
  "rape": 7126,
  "\u0120Hal": 7127,
  "\u0120Hum": 7128,
  "Pin": 7129,
  "club": 7130,
  "\u0120Mas": 7131,
  "Drop": 7132,
  "Slot": 7133,
  "BF": 7134,
  "\u0120AF": 7135,
  "WH": 7136,
  "iale": 7137,
  "',\u010a\u010a": 7138,
  "OWER": 7139,
  "prob": 7140,
  "\u0120';\u010a": 7141,
  "\u0109is": 7142,
  "BY": 7143,
  "perm": 7144,
  "law": 7145,
  "Bits": 7146,
  "\u0120UIT": 7147,
  "curl": 7148,
  "\u0120Occ": 7149,
  "\u0120Ger": 7150,
  "unct": 7151,
  "\u0109do": 7152,
  "mir": 7153,
  "\u0120Ice": 7154,
  "\u012a\u00eb\u012d\u00a4": 7155,
  "\u0120ki": 7156,
  "\u00e8\u0122": 7157,
  "Und": 7158,
  "pn": 7159,
  "rac": 7160,
  "fold": 7161,
  "heat": 7162,
  "\u00ea\u00b0\u0122": 7163,
  "ei": 7164,
  "\u0120XXX": 7165,
  "\u0120awk": 7166,
  "Pal": 7167,
  "egen": 7168,
  "beit": 7169,
  "axes": 7170,
  "LANG": 7171,
  "\u0120Aus": 7172,
  "\u0120seu": 7173,
  "norm": 7174,
  "inx": 7175,
  "Raw": 7176,
  "\u0120Jam": 7177,
  "\u0120NG": 7178,
  "\u0120nan": 7179,
  "\u00e0\u00ae": 7180,
  "uby": 7181,
  "\u00c2\u00a9": 7182,
  "\u00e5\u0135": 7183,
  "\u0120NC": 7184,
  "\u00d8\u00b3": 7185,
  "\u0120};": 7186,
  "they": 7187,
  "\u0120jam": 7188,
  "\u00c8\u013b": 7189,
  "\u0120UTF": 7190,
  "\u0120Sav": 7191,
  "\u0109tmp": 7192,
  "\u0120Squ": 7193,
  "LOPT": 7194,
  "ddit": 7195,
  "tim": 7196,
  "\u0120apt": 7197,
  "\u00eb\u00a6": 7198,
  "via": 7199,
  "upo": 7200,
  "\u00ef\u00bc\u0133": 7201,
  "\u0120bra": 7202,
  "\u0120Ast": 7203,
  "inas": 7204,
  "cod": 7205,
  "LR": 7206,
  "eu": 7207,
  "\u0120rib": 7208,
  "\u0120\u00ed\u0137": 7209,
  "\u0120Dur": 7210,
  "\u0120haz": 7211,
  "\u0120FIX": 7212,
  "lore": 7213,
  "\u0120Kh": 7214,
  "Hot": 7215,
  "elo": 7216,
  "atz": 7217,
  "\u0120Fly": 7218,
  "Seq": 7219,
  "\u00e0\u00b8\u013b": 7220,
  "VRTX": 7221,
  "\u0120DM": 7222,
  "\u00d0\u013f": 7223,
  "cu": 7224,
  "\u00c3\u00a7o": 7225,
  "wb": 7226,
  "\u0120nl": 7227,
  "Tim": 7228,
  "igg": 7229,
  "\u00e5\u0129\u00ba": 7230,
  "\u0120kl": 7231,
  "\u00e1\u00ba\u00a1": 7232,
  "GUI": 7233,
  "uty": 7234,
  "xit": 7235,
  "ETER": 7236,
  "Unt": 7237,
  "\u0120ct": 7238,
  "TRA": 7239,
  "\u0120nr": 7240,
  "SED": 7241,
  "rij": 7242,
  "pie": 7243,
  "\u0120\u00c2\u00b1": 7244,
  "Pa": 7245,
  "mad": 7246,
  "\u0120nh": 7247,
  "zn": 7248,
  "\u0120bil": 7249,
  "ibt": 7250,
  "Live": 7251,
  "\u0120mej": 7252,
  "\u0120cod": 7253,
  "Hex": 7254,
  "syn": 7255,
  "rus": 7256,
  "omes": 7257,
  "pes": 7258,
  "\u00d0\u0140": 7259,
  "\":\u010d\u010a": 7260,
  "\u0120lua": 7261,
  "ENS": 7262,
  "Src": 7263,
  "VERT": 7264,
  "hh": 7265,
  "anne": 7266,
  "zing": 7267,
  "\u00e9\u0136": 7268,
  "\u0120Vin": 7269,
  "canf": 7270,
  "\u0120\u00d0\u00b0": 7271,
  "rgba": 7272,
  "\u00ec\u013f\u013a": 7273,
  "\u0120Ges": 7274,
  "nick": 7275,
  "rik": 7276,
  "\u00e6\u013a\u00af": 7277,
  "obb": 7278,
  "mont": 7279,
  "Ps": 7280,
  "\u0120Him": 7281,
  "\u00e2\u0122\u00a6.": 7282,
  "\u0120SPI": 7283,
  "uum": 7284,
  "utos": 7285,
  "auc": 7286,
  "\u0120Ask": 7287,
  "\u0120].": 7288,
  "ixin": 7289,
  "VT": 7290,
  "astr": 7291,
  "ardo": 7292,
  "\u0120rag": 7293,
  "\u0109un": 7294,
  "Plan": 7295,
  "\u00ea\u00b8\u00b0": 7296,
  "sta": 7297,
  "SIZE": 7298,
  "\u0120=~": 7299,
  "ocab": 7300,
  "urls": 7301,
  "\u0120neu": 7302,
  "\u0120#+#": 7303,
  "elli": 7304,
  "\u00c3\u00b3d": 7305,
  "bre": 7306,
  "rock": 7307,
  "ivel": 7308,
  "\u0120HAL": 7309,
  "upal": 7310,
  "EAR": 7311,
  "udi": 7312,
  "UF": 7313,
  "\u0120Own": 7314,
  "enez": 7315,
  "Days": 7316,
  "cid": 7317,
  "\u00d1\u0123\u00d1\u0131": 7318,
  "\u0120vez": 7319,
  "fw": 7320,
  "heim": 7321,
  "\u0120NON": 7322,
  "tol": 7323,
  "\u0120DS": 7324,
  "\"'": 7325,
  "\u0120sd": 7326,
  "\u0120rod": 7327,
  "NEW": 7328,
  "Pay": 7329,
  "skip": 7330,
  "\u0120wur": 7331,
  "\u0120Sab": 7332,
  "\u0120Ult": 7333,
  "\u0120Rad": 7334,
  "OB": 7335,
  "TRUE": 7336,
  "ffic": 7337,
  "ilet": 7338,
  "`);\u010a": 7339,
  "Both": 7340,
  "\u0120hp": 7341,
  "\u0120EC": 7342,
  "\u0120Pi": 7343,
  "GM": 7344,
  "isd": 7345,
  "\u0120Han": 7346,
  "jes": 7347,
  "bid": 7348,
  "GIN": 7349,
  "bage": 7350,
  "hang": 7351,
  "\u0120NA": 7352,
  "gc": 7353,
  "\u0120'-'": 7354,
  "\u0120Gay": 7355,
  "iri": 7356,
  "ubb": 7357,
  "enth": 7358,
  "\u0120Wat": 7359,
  "\u0120CI": 7360,
  "ETA": 7361,
  "Her": 7362,
  "Such": 7363,
  "\u0120\u00e3\u0125": 7364,
  "\u0120els": 7365,
  "apor": 7366,
  "\u0120cx": 7367,
  "oeff": 7368,
  "Sn": 7369,
  "Apr": 7370,
  "\u00e5\u00a4\u00b1": 7371,
  "ncy": 7372,
  "\u0120Mi": 7373,
  "\u00e5\u012b": 7374,
  "\u00e8\u00a1\u00a8": 7375,
  "llib": 7376,
  "==\u010a": 7377,
  "\u0120Dom": 7378,
  "\u00e9\u013b\u00a4": 7379,
  "LET": 7380,
  "\u0120<>\u010a": 7381,
  "\u0120sne": 7382,
  "\u0120bol": 7383,
  "zym": 7384,
  "\u00e0\u00b8\u00b2": 7385,
  "\u00e6\u0131": 7386,
  "oni": 7387,
  "\u0120yii": 7388,
  "\u0120Gil": 7389,
  "\u0120CF": 7390,
  "\u0120vig": 7391,
  "such": 7392,
  "ivia": 7393,
  "lng": 7394,
  "\u0120unc": 7395,
  "pk": 7396,
  "utt": 7397,
  "imb": 7398,
  "\u0109z": 7399,
  "?>\u010d\u010a": 7400,
  "\u00c8\u013d": 7401,
  "simp": 7402,
  "ifu": 7403,
  "dbo": 7404,
  "\u0120Gas": 7405,
  "%\",\u010a": 7406,
  "\u0120[:": 7407,
  ".')\u010a": 7408,
  "inh": 7409,
  "\u0120MC": 7410,
  "hook": 7411,
  "\u00e1\u0140": 7412,
  "\u0120SR": 7413,
  "\u00e6\u0123": 7414,
  "nia": 7415,
  "Ng": 7416,
  "\u0120VA": 7417,
  "Ste": 7418,
  "alla": 7419,
  "\u0120xx": 7420,
  "uir": 7421,
  "uru": 7422,
  "\u0120Eag": 7423,
  "BIT": 7424,
  "\u00e5\u00a7": 7425,
  "igid": 7426,
  "\u0120\u00d1\u012f": 7427,
  "\u00e5\u012c\u0142": 7428,
  "\u00d9\u0123": 7429,
  "amil": 7430,
  "Clip": 7431,
  "\u0109db": 7432,
  "mr": 7433,
  "\u0120Kit": 7434,
  "\u0120PRE": 7435,
  "\u0120:-": 7436,
  "empt": 7437,
  "\u0120kg": 7438,
  "\u0120RGB": 7439,
  "atts": 7440,
  "wx": 7441,
  "\u0109ctx": 7442,
  "\u0120Hur": 7443,
  "/>.\u010a": 7444,
  "\u00e9\u013f": 7445,
  "[]{": 7446,
  "\u0120sep": 7447,
  "\u0120Hi": 7448,
  "TEM": 7449,
  "ruit": 7450,
  "sid": 7451,
  "both": 7452,
  "\u0120jer": 7453,
  "\u00d0\u00b5\u00d0\u00b9": 7454,
  "VIEW": 7455,
  "\u0120):\u010a": 7456,
  "ints": 7457,
  "\u0120apr": 7458,
  "ODY": 7459,
  "sch": 7460,
  "\u0120s\u00c3\u00a5": 7461,
  "CEPT": 7462,
  "\u0120KC": 7463,
  "tile": 7464,
  "vens": 7465,
  "amo": 7466,
  "\u0120\u00e2\u012b": 7467,
  "\u0120BT": 7468,
  "fm": 7469,
  "\u0120ACT": 7470,
  "\u0120Git": 7471,
  "<>": 7472,
  "lb": 7473,
  "\u00e8\u00b4\u00a5": 7474,
  "\u00eb\u0135": 7475,
  "\u0120Lyn": 7476,
  "aden": 7477,
  "hist": 7478,
  "eks": 7479,
  "\u0109msg": 7480,
  "\u0120tbl": 7481,
  "\u0120,\u010a\u010a": 7482,
  "UTC": 7483,
  "wick": 7484,
  "tipo": 7485,
  "hp": 7486,
  "\u0120rit": 7487,
  "DIS": 7488,
  "Ter": 7489,
  "elve": 7490,
  "uren": 7491,
  "\u00ef\u00bd\u0140": 7492,
  "mic": 7493,
  "RESH": 7494,
  "\u0120:::": 7495,
  "itas": 7496,
  "\u0120%(": 7497,
  "LBL": 7498,
  "GBT": 7499,
  "\u0120spy": 7500,
  "lict": 7501,
  "\u0120dic": 7502,
  "bag": 7503,
  "onia": 7504,
  "\u0120prz": 7505,
  "\u00d0\u00be\u00d0\u00b6": 7506,
  "oj": 7507,
  "\u0120dol": 7508,
  "\u00e6\u00b1": 7509,
  "\u00e7\u0136\u0141": 7510,
  "\u0120Ave": 7511,
  "\u0120\"]": 7512,
  "\u0120dit": 7513,
  "kb": 7514,
  "\u00e4\u00bf\u00a1": 7515,
  "\u0120CB": 7516,
  "aran": 7517,
  "etal": 7518,
  "\u00ec\u00a7\u0122": 7519,
  "UDIO": 7520,
  "sig": 7521,
  "\u0120Hat": 7522,
  "MON": 7523,
  "\u0120cli": 7524,
  "\u0120{!!": 7525,
  "\u0120toy": 7526,
  "\u00d8\u00a8": 7527,
  "Opt": 7528,
  "umn": 7529,
  "cols": 7530,
  "\u0120DJ": 7531,
  "gv": 7532,
  "nest": 7533,
  "\u0120hij": 7534,
  "issa": 7535,
  "omi": 7536,
  "\u0120edu": 7537,
  "\u00c4\u013d": 7538,
  "\u0120Tok": 7539,
  "Try": 7540,
  "\u0120lag": 7541,
  "thur": 7542,
  "\u0120ale": 7543,
  "ouri": 7544,
  "Does": 7545,
  "fon": 7546,
  "\u0120CIA": 7547,
  "\u0120bd": 7548,
  "nik": 7549,
  "\u0120Lie": 7550,
  "\u0120TAG": 7551,
  "vue": 7552,
  "uki": 7553,
  "cery": 7554,
  "gie": 7555,
  "\u00e7\u00b1\u00bb": 7556,
  "\u0120cab": 7557,
  "*\u010a\u010a": 7558,
  "\u00c3\u00a4h": 7559,
  "\u00c5\u0124a": 7560,
  "\u00ec\u012d": 7561,
  "\u0120\u00c3\u00a9s": 7562,
  "OLL": 7563,
  "slot": 7564,
  "\u00c3\u00a4nd": 7565,
  "DU": 7566,
  "RAW": 7567,
  "anno": 7568,
  "\u00c3\u00bch": 7569,
  "\u0120VK": 7570,
  "itr": 7571,
  "\u00eb\u0142": 7572,
  "aura": 7573,
  "Uint": 7574,
  "\u0120Nik": 7575,
  "\u00e2\u0122\u00b3": 7576,
  "orch": 7577,
  "alem": 7578,
  "artz": 7579,
  "\u0120RC": 7580,
  "\u00e7\u00bd\u00ae": 7581,
  "vard": 7582,
  "\u0120Toy": 7583,
  "\u0120mol": 7584,
  "ATT": 7585,
  "\u0120unp": 7586,
  "Decl": 7587,
  "\u0120Dat": 7588,
  "brew": 7589,
  "Ms": 7590,
  "\u0120SEC": 7591,
  "fly": 7592,
  "Tele": 7593,
  "enes": 7594,
  "\u00c2\u00a3": 7595,
  "RP": 7596,
  "\u00e3\u0124\u00b9": 7597,
  "\u0120MM": 7598,
  "Bel": 7599,
  "\u0120rh": 7600,
  "\u0120Ju": 7601,
  "\u0120\\\u010d\u010a": 7602,
  "]\u010a\u010a\u010a": 7603,
  "\u0120foi": 7604,
  "\u0120~=": 7605,
  "Di": 7606,
  "\u0120')\u010a": 7607,
  "'\";\u010a": 7608,
  "\u0120coc": 7609,
  "Hide": 7610,
  ".'\u010a\u010a": 7611,
  "\u00e2\u012a": 7612,
  "\u0120Tai": 7613,
  "VED": 7614,
  "\u0120Gun": 7615,
  "\u0120Doc": 7616,
  "ovo": 7617,
  "burn": 7618,
  "\u0120SHA": 7619,
  "wap": 7620,
  "your": 7621,
  "UBLE": 7622,
  "\u00e1\u00ba\u00a3": 7623,
  "pow": 7624,
  "bie": 7625,
  "Diff": 7626,
  "\u0120Lot": 7627,
  "akh": 7628,
  "aval": 7629,
  "\u0120FO": 7630,
  "Occ": 7631,
  "\u0120Mit": 7632,
  "mn": 7633,
  "emi": 7634,
  "illo": 7635,
  "ulk": 7636,
  "\u0120Hu": 7637,
  "\u0120\",\u010a": 7638,
  "\u0120PE": 7639,
  "\u0120dei": 7640,
  "Plus": 7641,
  "fono": 7642,
  "DECL": 7643,
  "UIT": 7644,
  "kee": 7645,
  "prof": 7646,
  "lv": 7647,
  "ifs": 7648,
  "\u0120cov": 7649,
  "\u00e2\u0137": 7650,
  "\u0120Cow": 7651,
  "atom": 7652,
  "bx": 7653,
  "iors": 7654,
  "Aug": 7655,
  "comb": 7656,
  "afka": 7657,
  "Tri": 7658,
  "\u00e7\u0132\u0128": 7659,
  "gp": 7660,
  "\u0120Ni": 7661,
  "\u00e6\u013e\u00ac": 7662,
  "dup": 7663,
  "emia": 7664,
  "airy": 7665,
  "\u0120ISO": 7666,
  "\u0120dys": 7667,
  "igue": 7668,
  "phet": 7669,
  "\u0120Eu": 7670,
  "ully": 7671,
  "\u0120-\u010a\u010a": 7672,
  "\u0120LCD": 7673,
  "\u0120vom": 7674,
  "Tem": 7675,
  "roph": 7676,
  "DMIN": 7677,
  "Si": 7678,
  "IAN": 7679,
  "hort": 7680,
  "\u00ea\u00b3": 7681,
  "\u0120Ark": 7682,
  "\u0120'(": 7683,
  "\u0120fue": 7684,
  "coln": 7685,
  "TM": 7686,
  "riel": 7687,
  "\u0120RAM": 7688,
  "\u0120\u00eb\u00b0": 7689,
  "OTAL": 7690,
  "}},\u010a": 7691,
  "ahan": 7692,
  "ceil": 7693,
  "\u0120CBD": 7694,
  "\u0120RF": 7695,
  "PEG": 7696,
  "AYS": 7697,
  "\u0120WIN": 7698,
  "\u0120\u00c5\u0141": 7699,
  "\u0120{:": 7700,
  ">[\u010a": 7701,
  "oler": 7702,
  "\u0120`\u010a": 7703,
  "\u0120Abs": 7704,
  "logs": 7705,
  "\u0120../": 7706,
  "\u0120ADC": 7707,
  "kom": 7708,
  "TY": 7709,
  "\u0120dub": 7710,
  "empo": 7711,
  "\u0120gc": 7712,
  "\u0109X": 7713,
  "\u00d1\u0122\u00d0\u00b0": 7714,
  "\u0141\u00a5": 7715,
  "\u0120\u00d0\u00b5": 7716,
  "blr": 7717,
  "\u0120iz": 7718,
  "\u0120UL": 7719,
  "ucle": 7720,
  "\u0120*)&": 7721,
  "\u0120m\u00c3\u00b6": 7722,
  "]):\u010a": 7723,
  "\u00e3\u0123\u0135": 7724,
  "Der": 7725,
  "\u0120Mom": 7726,
  "fac": 7727,
  "\u00c3\u00b2": 7728,
  "otta": 7729,
  "\u0120Pu": 7730,
  "\u0120\u0109\u0109\u0109": 7731,
  "tv": 7732,
  "\u0109Set": 7733,
  "Tick": 7734,
  "\u0120cru": 7735,
  "ikan": 7736,
  "\u00e6\u0123\u00af": 7737,
  "beat": 7738,
  "\u0109o": 7739,
  "Cent": 7740,
  "\u00c3\u00aame": 7741,
  "PK": 7742,
  "\u00e8\u00a1\u012e": 7743,
  "UV": 7744,
  "\u00e7\u00ba": 7745,
  "dra": 7746,
  "cou": 7747,
  "rp": 7748,
  "GG": 7749,
  "\u0120Vue": 7750,
  "\u0120','": 7751,
  "omas": 7752,
  "ROLL": 7753,
  "\u00e0\u00b8\u00a3": 7754,
  "lop": 7755,
  "))]\u010a": 7756,
  "\u0120HR": 7757,
  "\u0120Rap": 7758,
  "\u0120@@": 7759,
  "\u0120Ka": 7760,
  "MAN": 7761,
  "\u0120fed": 7762,
  "\u0120akt": 7763,
  "\u0120Ti": 7764,
  "\u0120ah": 7765,
  "verb": 7766,
  "\u0120sew": 7767,
  "avis": 7768,
  "\u0120Pok": 7769,
  "esa": 7770,
  "Ep": 7771,
  "PELL": 7772,
  "acon": 7773,
  "\u0120GC": 7774,
  "\u00e5\u00ae\u013c": 7775,
  ",\u00e2\u0122\u013b": 7776,
  "heit": 7777,
  "got": 7778,
  "\u0120jug": 7779,
  "enti": 7780,
  "LEFT": 7781,
  "\u0120NOW": 7782,
  "tha": 7783,
  "IDEO": 7784,
  "\u00e6\u0136\u00b9": 7785,
  "\u0120\u00d0\u0141": 7786,
  "\u0120bij": 7787,
  "\u0120lex": 7788,
  "\u0109num": 7789,
  "\u0120(<": 7790,
  "\u00e3\u0122\u0122": 7791,
  "tri": 7792,
  "HC": 7793,
  "isl": 7794,
  "\u0120pk": 7795,
  "\u0120AST": 7796,
  "\u0120?,": 7797,
  "addy": 7798,
  "ERRU": 7799,
  "\u00d0\u00b5\u00d1\u0123": 7800,
  "\u0120\"#{": 7801,
  "gree": 7802,
  "hit": 7803,
  "Jo": 7804,
  "\u00d1\u0124\u00d0\u00b8": 7805,
  "cuts": 7806,
  "\u0120/*!": 7807,
  "\u0120lhs": 7808,
  "\u0120muy": 7809,
  "iao": 7810,
  "CRET": 7811,
  "\u0120gew": 7812,
  "FLAG": 7813,
  "\u0109max": 7814,
  "wy": 7815,
  "Rank": 7816,
  "DOWN": 7817,
  "\u0120(__": 7818,
  "Fr": 7819,
  "Ca": 7820,
  "asma": 7821,
  "hyth": 7822,
  "\u0120PI": 7823,
  "\u0120gig": 7824,
  "\u0120Ve": 7825,
  "Bay": 7826,
  "bird": 7827,
  "SSL": 7828,
  "STAT": 7829,
  "\u0125\u00bd": 7830,
  "Aw": 7831,
  "seed": 7832,
  "olk": 7833,
  "LF": 7834,
  "\u0120Pub": 7835,
  "\u0120\u00e2\u0136": 7836,
  "cion": 7837,
  "##\u010a": 7838,
  "III": 7839,
  "\u00d0\u00bd\u00d0\u00b8": 7840,
  "dark": 7841,
  "erp": 7842,
  "erta": 7843,
  "\u0120lev": 7844,
  "ampa": 7845,
  "_;\u010a\u010a": 7846,
  "\u0120HIV": 7847,
  "\u0120GPU": 7848,
  "\u0109obj": 7849,
  "\u0120BUS": 7850,
  "WO": 7851,
  "\u0120mos": 7852,
  "rena": 7853,
  "\u0120phi": 7854,
  "\u0120rd": 7855,
  "\u00e5\u00b8\u0124": 7856,
  "\u0120Fra": 7857,
  "\u00e6\u013e\u0141": 7858,
  "\u0120bay": 7859,
  "Tex": 7860,
  "Fi": 7861,
  "\u0120Ban": 7862,
  "\u0120dup": 7863,
  "rob": 7864,
  "rez": 7865,
  "Used": 7866,
  "wear": 7867,
  "\u0120\"\u010a\u010a": 7868,
  "\u0120hv": 7869,
  "Std": 7870,
  "\u0120amp": 7871,
  "\u0120\".\"": 7872,
  "\u00e5\u00b1": 7873,
  "take": 7874,
  "mers": 7875,
  "PEED": 7876,
  "\u0109E": 7877,
  "\u00d0\u00be\u00d1\u0123": 7878,
  "peak": 7879,
  "eca": 7880,
  "\u0120&(": 7881,
  "MODE": 7882,
  "Dom": 7883,
  "itty": 7884,
  "Tw": 7885,
  "NaN": 7886,
  "\u00d0\u00b0\u00d0\u00b4": 7887,
  "\u0120Tel": 7888,
  "ilen": 7889,
  "jan": 7890,
  "\u0120Url": 7891,
  "azer": 7892,
  "lags": 7893,
  "LIST": 7894,
  "\u00e7\u013b": 7895,
  "sy": 7896,
  "GC": 7897,
  "TX": 7898,
  "\u0120Fal": 7899,
  "\u0120Ja": 7900,
  "\u0120Ky": 7901,
  "\u0120MAC": 7902,
  "\u0120SIM": 7903,
  "nya": 7904,
  "\u0120pac": 7905,
  "atty": 7906,
  "sj": 7907,
  "\u00c5\u0124o": 7908,
  "\u0120Bor": 7909,
  "did": 7910,
  "tain": 7911,
  "pire": 7912,
  "tel": 7913,
  "ande": 7914,
  "\u0120McG": 7915,
  "\u00e0\u00b8\u0143": 7916,
  "\u0120\u00d0\u0134": 7917,
  "++\u010a": 7918,
  "\u0120GPL": 7919,
  "gly": 7920,
  "ipy": 7921,
  "\u0120*>": 7922,
  "lij": 7923,
  "\".\u010a": 7924,
  "\u0120Aqu": 7925,
  "\u0120TS": 7926,
  "GRAM": 7927,
  "Else": 7928,
  "\u0120_\u010a": 7929,
  "\u0109A": 7930,
  "!\")\u010a": 7931,
  "\u0120gri": 7932,
  "\u0120bez": 7933,
  "qr": 7934,
  "\u0120Bot": 7935,
  "\u0120Raw": 7936,
  "PD": 7937,
  "BOX": 7938,
  "\u00e4\u00bb\u00a5": 7939,
  "UNIT": 7940,
  "Sur": 7941,
  "qt": 7942,
  "\u0120Sac": 7943,
  "\u0109ch": 7944,
  "fare": 7945,
  "NY": 7946,
  "\u0120voy": 7947,
  "\u00e4\u00bf\u00ae": 7948,
  "\u00ef\u00bc\u012b\u010a": 7949,
  "\u0120\u00ec\u013f\u00b4": 7950,
  "kle": 7951,
  "\u00e7\u00ae": 7952,
  "\u0120Fig": 7953,
  "\u0120Tes": 7954,
  "\u0120BSD": 7955,
  "\u0120kr": 7956,
  "hatt": 7957,
  "\u0120tex": 7958,
  "EDI": 7959,
  "\u0120Ted": 7960,
  "rice": 7961,
  "isen": 7962,
  "__)\u010a": 7963,
  "uo": 7964,
  "Lat": 7965,
  "wnd": 7966,
  "\u0120Syn": 7967,
  "\u0120WM": 7968,
  "elm": 7969,
  "\u0120mv": 7970,
  "\u0120kh": 7971,
  "jen": 7972,
  ">',\u010a": 7973,
  "HH": 7974,
  "APH": 7975,
  "Wnd": 7976,
  "\u0120Sel": 7977,
  "\u0120Wy": 7978,
  "\u00d8\u00b9": 7979,
  "\u0120RS": 7980,
  "LU": 7981,
  "\u0120Cra": 7982,
  "\u0120AWS": 7983,
  "\u0120wi": 7984,
  "\u0120WP": 7985,
  "\u00ec\u012a\u013a": 7986,
  "\u00e0\u00b8\u00b1": 7987,
  "\u0124\u00b9": 7988,
  "\u0120%%": 7989,
  "\u0120rip": 7990,
  "\u0120Ta": 7991,
  "quet": 7992,
  "\u0120FT": 7993,
  "WIN": 7994,
  "\u00e5\u0127\u0125": 7995,
  "West": 7996,
  "argc": 7997,
  "CONT": 7998,
  "\u0120vet": 7999,
  "\u0120MSG": 8000,
  "esse": 8001,
  "gulp": 8002,
  "\u0120kun": 8003,
  "nut": 8004,
  "\u0120Um": 8005,
  "Yeah": 8006,
  "\u0120GPS": 8007,
  "\u0120\u00c5\u00bce": 8008,
  "Fit": 8009,
  "\u00c3\u00b6n": 8010,
  "lia": 8011,
  "enza": 8012,
  "Dist": 8013,
  "nx": 8014,
  "\u0120\u00d9\u0127": 8015,
  "_)\u010a": 8016,
  "\u0109it": 8017,
  "Ip": 8018,
  "\u0120!$": 8019,
  "PACE": 8020,
  "\u00e6\u0138\u00b9": 8021,
  "eor": 8022,
  "\u0120Kon": 8023,
  "ulpt": 8024,
  "awk": 8025,
  "ulin": 8026,
  "\u0120LG": 8027,
  "LAN": 8028,
  "\u0120lap": 8029,
  "\u0120Fro": 8030,
  ".'\u010a": 8031,
  "\u00c3\u0143s": 8032,
  "PDF": 8033,
  "\u0120kar": 8034,
  "\u0120\":\"": 8035,
  ">'\u010a": 8036,
  "\u00e6\u012c": 8037,
  "\u0120\"\\<": 8038,
  "oser": 8039,
  "]}\u010a": 8040,
  "\u0120$\"": 8041,
  "pull": 8042,
  "\u0139\u0131": 8043,
  "nte": 8044,
  "\u0120FM": 8045,
  "guid": 8046,
  "Adv": 8047,
  "\u00c3\u0141e": 8048,
  "\u00e1\u00ba\u0143": 8049,
  "\u0120SF": 8050,
  "pred": 8051,
  "osc": 8052,
  "\u0120])\u010a": 8053,
  "repo": 8054,
  "Disc": 8055,
  "\u0120\">\u010a": 8056,
  "EOF": 8057,
  "ogo": 8058,
  "Bot": 8059,
  "rod": 8060,
  "mesh": 8061,
  "()}\u010a": 8062,
  "yect": 8063,
  "\u0120NBC": 8064,
  "\u0120hol": 8065,
  "\u0120Bio": 8066,
  "Pod": 8067,
  "\u00c3\u00ac": 8068,
  "\u0120HOW": 8069,
  "aton": 8070,
  "\u0120/\\": 8071,
  "i\u00c3\u00a9n": 8072,
  "eph": 8073,
  "ibe": 8074,
  "aku": 8075,
  "far": 8076,
  "AZ": 8077,
  "'.\u010a": 8078,
  "mons": 8079,
  "\u00ed\u0137\u013e": 8080,
  "\u0120*)(": 8081,
  "OKIE": 8082,
  "UAGE": 8083,
  "wing": 8084,
  "uli": 8085,
  "\u0120dip": 8086,
  "\u0120Pow": 8087,
  "\u0120Fed": 8088,
  "osph": 8089,
  "\u0120[%": 8090,
  "\u00e2\u0122\u013b.": 8091,
  "Den": 8092,
  "pres": 8093,
  "\"})\u010a": 8094,
  "\u0120pip": 8095,
  "iko": 8096,
  "\u0109key": 8097,
  "\u0120[\u010d\u010a": 8098,
  "\u0120nem": 8099,
  "due": 8100,
  "oren": 8101,
  "RM": 8102,
  "\u00e5\u00bd\u0137": 8103,
  "Need": 8104,
  "wers": 8105,
  "\u0120Due": 8106,
  "\u0120Pel": 8107,
  "exus": 8108,
  "\u0120NHL": 8109,
  "izen": 8110,
  "\u0120Alt": 8111,
  "Ctx": 8112,
  "\u00e7\u00a8": 8113,
  "\u0120GP": 8114,
  "iox": 8115,
  "mitt": 8116,
  "\u0120pig": 8117,
  "\u00c2\u00ab": 8118,
  "ASC": 8119,
  "COMP": 8120,
  "Ui": 8121,
  "Les": 8122,
  "ajs": 8123,
  "San": 8124,
  "UMP": 8125,
  "\u0120Gab": 8126,
  "owe": 8127,
  "uela": 8128,
  "\u0120wo": 8129,
  "iq": 8130,
  "\u0120Seq": 8131,
  "entr": 8132,
  "\u0120?\u010a\u010a": 8133,
  "\u00d0\u00b0\u00d0\u00bc": 8134,
  "\u0120Ce": 8135,
  "lam": 8136,
  "\u0120DEL": 8137,
  "caff": 8138,
  "\u0140\u012d": 8139,
  "\u0120mk": 8140,
  "OTT": 8141,
  "sym": 8142,
  "zh": 8143,
  "HO": 8144,
  "\u0120ash": 8145,
  "\u0120bib": 8146,
  "XXXX": 8147,
  "\u0120Nat": 8148,
  "\u00e5\u012e\u00ba": 8149,
  "LIB": 8150,
  "\u0120raz": 8151,
  "CORD": 8152,
  "EDIA": 8153,
  "\u0120Had": 8154,
  "\u0120DEF": 8155,
  "\u00e0\u00a4\u00be": 8156,
  "agne": 8157,
  "CTL": 8158,
  "\u0120\u00ec\u0137": 8159,
  "Tap": 8160,
  "alg": 8161,
  "ROOT": 8162,
  "sted": 8163,
  "\u0120\u00ea\u00b2": 8164,
  "\u0120uno": 8165,
  "\u0120vin": 8166,
  "\u0120Ay": 8167,
  "\u0120Gh": 8168,
  "HI": 8169,
  "\u0120Ott": 8170,
  "\u0120kin": 8171,
  "it\u00c3\u0142": 8172,
  "LEAR": 8173,
  "Sam": 8174,
  "\u0120sod": 8175,
  "\u0120maj": 8176,
  "ilot": 8177,
  "\u0120Tar": 8178,
  "cerr": 8179,
  "uced": 8180,
  "\u0120TM": 8181,
  "\u0120/><": 8182,
  "\u0120esk": 8183,
  "\u00e5\u012f\u0137": 8184,
  "\u0120jeg": 8185,
  "\u0120Neg": 8186,
  "Grad": 8187,
  "\u0120Pas": 8188,
  "\u00c3\u00b4ng": 8189,
  "\u0120Tit": 8190,
  "/*!\u010a": 8191,
  ")\";\u010a": 8192,
  "icia": 8193,
  "stan": 8194,
  "wc": 8195,
  "\u0120CBS": 8196,
  "MARK": 8197,
  "\u0120ONE": 8198,
  "\u0120Bol": 8199,
  "elry": 8200,
  "\u0142\u00e9\u013b\u00a4": 8201,
  "xxx": 8202,
  "CALE": 8203,
  "VOID": 8204,
  "same": 8205,
  "\u00e8\u00a6": 8206,
  "anya": 8207,
  "\u0120(!_": 8208,
  "ilia": 8209,
  "bara": 8210,
  "csrf": 8211,
  "imos": 8212,
  "\u00d0\u0136": 8213,
  "\u0120cf": 8214,
  "cia": 8215,
  "igm": 8216,
  "hn": 8217,
  ":]\u010a": 8218,
  "\u00c3\u00ae": 8219,
  "omed": 8220,
  "\u0120$(\"": 8221,
  "pte": 8222,
  "leaf": 8223,
  "\u00e4\u00bd\u012f": 8224,
  "\u00e9\u013d": 8225,
  "mul": 8226,
  "cie": 8227,
  "ISO": 8228,
  "Todo": 8229,
  "\u00c3\u00ban": 8230,
  "`)\u010a": 8231,
  "\u0120ri": 8232,
  "Low": 8233,
  "\u0120\u00e2\u012a\u0134": 8234,
  "__\u010a\u010a": 8235,
  "\u0109Log": 8236,
  "onal": 8237,
  "\u0120Msg": 8238,
  "borg": 8239,
  "\u0120Yan": 8240,
  "\u00c3\u0143n": 8241,
  "\u00e3\u0124\u00a4": 8242,
  "EMP": 8243,
  "ivos": 8244,
  "\u0120Dor": 8245,
  "\u0120Dol": 8246,
  "\u0120BIT": 8247,
  "\u0120Len": 8248,
  "ippi": 8249,
  "\u0120[$": 8250,
  "\u00c3\u00a8me": 8251,
  "YN": 8252,
  "\u0120kle": 8253,
  "\u0120FS": 8254,
  "'-": 8255,
  "\u00e5\u0140\u012d": 8256,
  "\u0120uit": 8257,
  "cas": 8258,
  "xl": 8259,
  "\u0120AMD": 8260,
  "\u0120Nev": 8261,
  "\u00c3\u0143as": 8262,
  "\u0120WR": 8263,
  "\u0120(\\<": 8264,
  "umi": 8265,
  "\u010d\u010d\u010d\u010a": 8266,
  "\u00e6\u00b3\u0137": 8267,
  "\u0120nel": 8268,
  "\u00e5\u0130\u00bf": 8269,
  "usb": 8270,
  "\u0120FIN": 8271,
  "\u00e6\u00ac": 8272,
  "USA": 8273,
  "edor": 8274,
  "\u00e5\u0143\u013a": 8275,
  "\u0120'.'": 8276,
  "\u0120php": 8277,
  "\u0120Jet": 8278,
  "\u0120Glo": 8279,
  "}\",\u010a": 8280,
  "[])\u010a": 8281,
  ":\u010a\u010a\u010a": 8282,
  "\u0109req": 8283,
  "\u0120zw": 8284,
  "\u0120lui": 8285,
  "\u0120WAY": 8286,
  "\u0120tob": 8287,
  "ulu": 8288,
  "\u0120Gov": 8289,
  "GP": 8290,
  "\u0120$\u010a": 8291,
  "\u0120ihr": 8292,
  "cca": 8293,
  "\u00e5\u0135\u0123": 8294,
  "\u00a6\u0124": 8295,
  "tid": 8296,
  "mk": 8297,
  "\u0120NV": 8298,
  "\u0120eb": 8299,
  "aci": 8300,
  "prom": 8301,
  "\u0120MEM": 8302,
  "eted": 8303,
  "\u0120\u00ec\u0139": 8304,
  "\u0109I": 8305,
  "\u0120GMT": 8306,
  "tu": 8307,
  "\u0120nx": 8308,
  "Proc": 8309,
  "Equ": 8310,
  "sent": 8311,
  "scar": 8312,
  "\u010a\u0109\u0109\u010a": 8313,
  "\u0120Got": 8314,
  "\u0120sor": 8315,
  "UK": 8316,
  "\u0120ADV": 8317,
  "\u0120DA": 8318,
  "\u0120Tan": 8319,
  "\u0120ov": 8320,
  "\u0120vc": 8321,
  "\u0120Od": 8322,
  "\u00e5\u012b\u012f": 8323,
  "Nome": 8324,
  "Ben": 8325,
  "\u0120dou": 8326,
  "bst": 8327,
  "\u0120jwt": 8328,
  "\u0120TC": 8329,
  "\u0120Cro": 8330,
  "\u0120oz": 8331,
  "\u0120Too": 8332,
  "gate": 8333,
  "esp": 8334,
  "eo": 8335,
  "iele": 8336,
  "Ord": 8337,
  "\u0109on": 8338,
  "\u00d1\u0124\u00d0\u00be": 8339,
  "ssl": 8340,
  "\u0120sco": 8341,
  "reck": 8342,
  "\u00e7\u00a7\u00b0": 8343,
  "Sept": 8344,
  "\u0120Dak": 8345,
  "\u00d0\u00b5\u00d0\u00b3": 8346,
  "hour": 8347,
  "ORIZ": 8348,
  "lash": 8349,
  "\u0120nit": 8350,
  "yll": 8351,
  "\u0120Fan": 8352,
  "fre": 8353,
  "eway": 8354,
  "\u0120\u00d0\u00b3": 8355,
  "Tom": 8356,
  "ITER": 8357,
  "!\"\u010a": 8358,
  "\u00e5\u00bb": 8359,
  "\u0120dal": 8360,
  "adj": 8361,
  "riz": 8362,
  "\u0120lu": 8363,
  "\u00e7\u00ab": 8364,
  "\u0120!\u010a\u010a": 8365,
  "YLE": 8366,
  "UUID": 8367,
  "\u0120HH": 8368,
  "Ah": 8369,
  "\u0120NOI": 8370,
  "\u0120\u00c3\u0139": 8371,
  "educ": 8372,
  "amen": 8373,
  "\u0120dao": 8374,
  "udad": 8375,
  "\u0120tin": 8376,
  "\u00e3\u0124\u0135": 8377,
  "\u0120pkg": 8378,
  "\u0120MAT": 8379,
  "!!\u010a\u010a": 8380,
  "\u0120XP": 8381,
  "iker": 8382,
  "opic": 8383,
  "must": 8384,
  "\u0120_(\"": 8385,
  "\u0120lng": 8386,
  "live": 8387,
  "\u0120PK": 8388,
  "\u00e1\u0122": 8389,
  "PLY": 8390,
  "imi": 8391,
  "}`;\u010a": 8392,
  "\u0109sb": 8393,
  "rose": 8394,
  "\u0120gan": 8395,
  "stm": 8396,
  "\u00c5\u013d\u00c4\u0129": 8397,
  "\u00e7\u00bc": 8398,
  "\u0120Ing": 8399,
  "\u0120CN": 8400,
  "\u0120Jen": 8401,
  "REAL": 8402,
  "ALE": 8403,
  "\u00ec\u012c\u00a4": 8404,
  "iol": 8405,
  "\u0120WS": 8406,
  "Fn": 8407,
  "\u0120Say": 8408,
  "\u00ef\u00bc\u0134": 8409,
  "erno": 8410,
  "\u0120Cop": 8411,
  "bars": 8412,
  "ORLD": 8413,
  "MAND": 8414,
  "\u0120PDO": 8415,
  "\u00ef\u00bc\u013d": 8416,
  "arta": 8417,
  "\u0120$__": 8418,
  "\u0120NET": 8419,
  "\u0120SEO": 8420,
  "\u0120\\\\": 8421,
  "yon": 8422,
  "Norm": 8423,
  "ITCH": 8424,
  "mun": 8425,
  "pur": 8426,
  "\u0120IDC": 8427,
  "\u0120Wel": 8428,
  "\u0136\u00e5\u013d\u0140": 8429,
  "\u0120TOP": 8430,
  "mill": 8431,
  "\u0120DT": 8432,
  "\u0120KB": 8433,
  "usc": 8434,
  "\u0120SIG": 8435,
  "TING": 8436,
  "MLE": 8437,
  "$\u010a": 8438,
  "ften": 8439,
  "scr": 8440,
  "\u00e3\u0122\u012d": 8441,
  "ftp": 8442,
  "\u00e6\u00b3\u00a8": 8443,
  "PTH": 8444,
  "\u0120Ts": 8445,
  "\u0109os": 8446,
  "abi": 8447,
  "%',\u010a": 8448,
  "Been": 8449,
  "FER": 8450,
  "oust": 8451,
  "hop": 8452,
  "\u0120\u00e2\u013a": 8453,
  "\u0120nc": 8454,
  "enne": 8455,
  "ISTS": 8456,
  "\u0120psy": 8457,
  "\u00e5\u00bf": 8458,
  "lio": 8459,
  "nis": 8460,
  "\u0120gt": 8461,
  "GN": 8462,
  "\u0120Ax": 8463,
  "hydr": 8464,
  "ieu": 8465,
  "\u0120thy": 8466,
  "\u0120lt": 8467,
  "ocks": 8468,
  "TEX": 8469,
  "uka": 8470,
  "\u00e0\u00b8\u0123": 8471,
  "\u0120\"|": 8472,
  "\u00e3\u0125\u0125": 8473,
  "\u00e8\u0129": 8474,
  "hai": 8475,
  "Imp": 8476,
  "ONSE": 8477,
  "\u0120Raj": 8478,
  "\u00e1\u00bb\u0129": 8479,
  "his": 8480,
  "camp": 8481,
  "Repo": 8482,
  "\u0120SB": 8483,
  "\u0120vos": 8484,
  "hone": 8485,
  "\u0120Guy": 8486,
  "Mc": 8487,
  "rin": 8488,
  "\u0120pap": 8489,
  "\u0120Pad": 8490,
  "Paul": 8491,
  "OTH": 8492,
  "VI": 8493,
  "equ": 8494,
  "\u0109typ": 8495,
  "\u0120(\u010d\u010a": 8496,
  "\u0120SSL": 8497,
  "LEN": 8498,
  "\u0109min": 8499,
  "\u0120>\u010a\u010a": 8500,
  "pane": 8501,
  "zb": 8502,
  "isto": 8503,
  "\u0120Fat": 8504,
  "omer": 8505,
  "\u0120Bab": 8506,
  "TOP": 8507,
  "GT": 8508,
  "oter": 8509,
  "neh": 8510,
  "Cam": 8511,
  "ABC": 8512,
  "Ing": 8513,
  "imon": 8514,
  "unto": 8515,
  "\u00c3\u00a4ng": 8516,
  "CALL": 8517,
  "IDD": 8518,
  "Gold": 8519,
  "\u0120aj": 8520,
  "\u0120DMA": 8521,
  "\u0130\u00b7": 8522,
  "\u0120Bra": 8523,
  "cury": 8524,
  "WC": 8525,
  "\u0120\u00d0\u00bb": 8526,
  "'\u010a\u010a\u010a": 8527,
  "._\u010a": 8528,
  "\u0120fb": 8529,
  "AKE": 8530,
  "ket": 8531,
  "\u0120tam": 8532,
  "SEQU": 8533,
  "\u0120fal": 8534,
  "essa": 8535,
  "\u0109LOG": 8536,
  "valu": 8537,
  "\u00e5\u0122\u00bc": 8538,
  "\u0120\u00e2\u013e": 8539,
  "\u0120Kir": 8540,
  "ssh": 8541,
  "\u0120ff": 8542,
  "ulas": 8543,
  "SEC": 8544,
  "airo": 8545,
  "\u0120Hop": 8546,
  "ctic": 8547,
  ".';\u010a": 8548,
  "\u0120UT": 8549,
  "\u0120fc": 8550,
  "pwd": 8551,
  "Mgr": 8552,
  "\u0120Eb": 8553,
  "uito": 8554,
  "\u0120COL": 8555,
  "unal": 8556,
  "ovid": 8557,
  "\u0109tr": 8558,
  "Elem": 8559,
  "\u0120REM": 8560,
  "itos": 8561,
  "vals": 8562,
  "lord": 8563,
  "\u0120Slo": 8564,
  "Plot": 8565,
  "\u0120ell": 8566,
  "FM": 8567,
  "rons": 8568,
  "l\u00c4\u00b1": 8569,
  "Mo": 8570,
  "IDS": 8571,
  "Cho": 8572,
  "\u0120McK": 8573,
  "erce": 8574,
  "Zoom": 8575,
  "ffen": 8576,
  "\u0109pr": 8577,
  "zu": 8578,
  "Trim": 8579,
  "Safe": 8580,
  "WP": 8581,
  "aims": 8582,
  "ERA": 8583,
  "emin": 8584,
  "\u0120Ry": 8585,
  "\u0120INS": 8586,
  "Air": 8587,
  "AAAA": 8588,
  "\u00ed\u012c": 8589,
  "\u00e8\u00be\u0135": 8590,
  "UINT": 8591,
  "seek": 8592,
  "\u0120Auf": 8593,
  "\u00ec\u0140\u0132": 8594,
  "\u0120dz": 8595,
  "adt": 8596,
  "\u0120uc": 8597,
  "\u0120nm": 8598,
  "\u0120MAN": 8599,
  "swap": 8600,
  "Life": 8601,
  "zech": 8602,
  "Very": 8603,
  "apat": 8604,
  "oooo": 8605,
  "demo": 8606,
  "STIT": 8607,
  "\u00e3\u0123\u00aa": 8608,
  "\u00c6\u00b0\u00e1\u00bb": 8609,
  "\u0120sul": 8610,
  "Que": 8611,
  "MAC": 8612,
  "\u0120dfs": 8613,
  "loyd": 8614,
  "\u0120chi": 8615,
  "\u0120vil": 8616,
  "\u00e5\u00bb\u00ba": 8617,
  "\u0120RED": 8618,
  "Mass": 8619,
  "Bank": 8620,
  "().\u010a": 8621,
  "Dark": 8622,
  "iera": 8623,
  "\u0120ACC": 8624,
  "Aff": 8625,
  "cx": 8626,
  "oton": 8627,
  "atie": 8628,
  "\u0120nap": 8629,
  "\u0120Ich": 8630,
  "\u00e6\u012d": 8631,
  "\u00d8\u00a9": 8632,
  "mult": 8633,
  "\u0120EST": 8634,
  "idal": 8635,
  "empl": 8636,
  "\",\u010a\u010a": 8637,
  "\u0120Pic": 8638,
  "anas": 8639,
  "\"]\u010a\u010a": 8640,
  "\u0120\u00c5": 8641,
  "\u0109cmd": 8642,
  "\u0120luc": 8643,
  "\u00e2\u0128": 8644,
  "IPS": 8645,
  "\u0120Ele": 8646,
  "iloc": 8647,
  "\u0120:)": 8648,
  "Fix": 8649,
  "umm": 8650,
  "\u0120Abb": 8651,
  "*\u010d\u010a": 8652,
  "buff": 8653,
  "\u0120rw": 8654,
  "IFO": 8655,
  "\u0120QU": 8656,
  "mv": 8657,
  "itol": 8658,
  "ylon": 8659,
  "uran": 8660,
  "pbs": 8661,
  "Alt": 8662,
  "CLK": 8663,
  "\u00ef\u00bc\u0132": 8664,
  "USB": 8665,
  "Was": 8666,
  "VS": 8667,
  "lead": 8668,
  "\u00c2\u00bd": 8669,
  "Than": 8670,
  "\u00e1\u00ba\u00bf": 8671,
  "]){\u010a": 8672,
  "\u0120PAR": 8673,
  "\u0120lg": 8674,
  "\u0120cmp": 8675,
  "BP": 8676,
  "Insn": 8677,
  "\u0120CAP": 8678,
  "\u0120SEE": 8679,
  "erie": 8680,
  "\u0120$$": 8681,
  "\u0120Cab": 8682,
  "].\u010a": 8683,
  "\u0120ld": 8684,
  "imen": 8685,
  "JO": 8686,
  "\u0120Fel": 8687,
  "\u0120EPA": 8688,
  "yer": 8689,
  "flu": 8690,
  "\u0120mog": 8691,
  "Ask": 8692,
  "ANC": 8693,
  "\u0120Joh": 8694,
  "kers": 8695,
  "\u0120mud": 8696,
  "gm": 8697,
  "\u00e7\u013e": 8698,
  "\u0120ros": 8699,
  "TRY": 8700,
  "Lang": 8701,
  "NP": 8702,
  "amy": 8703,
  "flat": 8704,
  "\u00e8\u0125\u00bd": 8705,
  "ptic": 8706,
  "\u00e2\u013a\u0127": 8707,
  "atum": 8708,
  "\u0134\u012e": 8709,
  "}\";\u010a": 8710,
  "\u0120cms": 8711,
  "Bro": 8712,
  "CTOR": 8713,
  "|.\u010a": 8714,
  "\u00e0\u00b8\u00a1": 8715,
  "aths": 8716,
  "\u00e5\u00a4\u00a7": 8717,
  "\u00d1\u0138": 8718,
  "ogs": 8719,
  "NR": 8720,
  "\u0120dop": 8721,
  "mass": 8722,
  "\u0120Sud": 8723,
  "\u0120lid": 8724,
  "\u00ec\u013e": 8725,
  "GPIO": 8726,
  "\u00d0\u013c": 8727,
  "\u0120GA": 8728,
  "\u0120Kle": 8729,
  "nums": 8730,
  "\u00e4\u00be\u012d": 8731,
  "qs": 8732,
  "oric": 8733,
  "jer": 8734,
  "\u0120Lux": 8735,
  "onn": 8736,
  "\u00e5\u00ba\u00a6": 8737,
  "glas": 8738,
  "'})\u010a": 8739,
  "WA": 8740,
  "wal": 8741,
  "\u0109buf": 8742,
  "rhs": 8743,
  "\u0120ink": 8744,
  "wl": 8745,
  "thy": 8746,
  "ohen": 8747,
  "KA": 8748,
  "UGIN": 8749,
  "\u00e6\u013d": 8750,
  "ISED": 8751,
  "MOD": 8752,
  "\u0120Ub": 8753,
  "\u0120Cu": 8754,
  "icol": 8755,
  "\u0120COR": 8756,
  "anza": 8757,
  "\u0120\"\\\\": 8758,
  "--\u010a\u010a": 8759,
  "\u0120PD": 8760,
  "\u0120='": 8761,
  "#\u010a\u010a": 8762,
  "Har": 8763,
  "\u0120ER": 8764,
  "die": 8765,
  "\u0120POS": 8766,
  "\u0120STE": 8767,
  "Wed": 8768,
  "quo": 8769,
  "\u0120Esp": 8770,
  "\u0120i\u00c3\u00a7": 8771,
  "rous": 8772,
  "\u0120\"-\"": 8773,
  "\u0120\u00f0\u0141\u013a": 8774,
  "etta": 8775,
  "\u00c4\u013bd": 8776,
  "lace": 8777,
  "\u0120Hub": 8778,
  "\u0120wc": 8779,
  "COND": 8780,
  "Scan": 8781,
  "\u0120Soc": 8782,
  "oner": 8783,
  "\u0120pw": 8784,
  "calc": 8785,
  "Into": 8786,
  "\u00e6\u00b5": 8787,
  "\u00e5\u00a7\u012d": 8788,
  "\u0120></": 8789,
  "keit": 8790,
  "TI": 8791,
  "\u0120Va": 8792,
  "\u0120SDK": 8793,
  "\u0120Obj": 8794,
  "\u0120AFP": 8795,
  "\u0120ces": 8796,
  "nof": 8797,
  "\u0120TCP": 8798,
  "RAY": 8799,
  "\u0120HW": 8800,
  "anka": 8801,
  "TAIL": 8802,
  "uego": 8803,
  "hub": 8804,
  "sky": 8805,
  "\u0120bp": 8806,
  "\"};\u010a": 8807,
  "\u0120Kom": 8808,
  "AUTH": 8809,
  "ahu": 8810,
  "\u00ec\u0126\u013e": 8811,
  "\u00ec\u013c\u00a9": 8812,
  "Blog": 8813,
  "assy": 8814,
  "\u0120CE": 8815,
  "Mer": 8816,
  "\u0120NJ": 8817,
  "\u0120ett": 8818,
  "\u0120Nin": 8819,
  "]])\u010a": 8820,
  "tar": 8821,
  "\u0120jag": 8822,
  "igu": 8823,
  "Food": 8824,
  "\u0120ace": 8825,
  "USD": 8826,
  "\u00e7\u00b4": 8827,
  "wpdb": 8828,
  "!\";\u010a": 8829,
  "Wrap": 8830,
  "\u00c3\u012b": 8831,
  "\u00c3\u00bab": 8832,
  "Cat": 8833,
  "idel": 8834,
  "\u010a\u0120\u010a": 8835,
  "\u0120Lex": 8836,
  "\u00c3\u0141en": 8837,
  "\u00e3\u0123\u013f": 8838,
  "\u0120Kal": 8839,
  "oba": 8840,
  "\u0120muj": 8841,
  "###\u010a": 8842,
  "Che": 8843,
  "asje": 8844,
  "\u0120svg": 8845,
  "\u0120\u00e5\u0131": 8846,
  "\u0120(($": 8847,
  "\u0120ek": 8848,
  "\u0120MK": 8849,
  "\u0120'\u010d\u010a": 8850,
  "iem": 8851,
  "\u0120ix": 8852,
  "\u0120Eld": 8853,
  "\u0109Map": 8854,
  "sqrt": 8855,
  "unda": 8856,
  "larg": 8857,
  "oji": 8858,
  "\u0120mim": 8859,
  "Hard": 8860,
  "made": 8861,
  "\u0120CMD": 8862,
  "\u00e0\u00a7": 8863,
  "\u00e5\u012a\u00b0": 8864,
  "\u00e3\u0122\u012c": 8865,
  "enas": 8866,
  "\u0120spi": 8867,
  "\u0120&$": 8868,
  "\u0120bew": 8869,
  "\u0120Rio": 8870,
  "\u0120jou": 8871,
  "Four": 8872,
  "iaz": 8873,
  "inde": 8874,
  "\u0120usb": 8875,
  "Hint": 8876,
  "\u00d0\u00b8\u00d0\u00b2": 8877,
  "\u0120ud": 8878,
  "\u0120Mic": 8879,
  "FK": 8880,
  "engu": 8881,
  "azed": 8882,
  "oby": 8883,
  "\u00c3\u00aan": 8884,
  "\u0120Lev": 8885,
  "acia": 8886,
  "onz": 8887,
  "\u0120sir": 8888,
  "su": 8889,
  "\u00c3\u00a9ri": 8890,
  "does": 8891,
  "\u0120lr": 8892,
  "lett": 8893,
  "OFF": 8894,
  "}`)\u010a": 8895,
  "\u00e9\u013f\u00a2": 8896,
  "Ann": 8897,
  "\u00e5\u00a5": 8898,
  "\u0120LOC": 8899,
  "auer": 8900,
  "MESS": 8901,
  "wei": 8902,
  "Pat": 8903,
  "mel": 8904,
  "\u0120PIN": 8905,
  "\u0120ops": 8906,
  "jack": 8907,
  "\u0120Joy": 8908,
  ")])\u010a": 8909,
  "oso": 8910,
  "\u0120\\'": 8911,
  "ulta": 8912,
  "June": 8913,
  "tcp": 8914,
  "\u0120Kel": 8915,
  "uart": 8916,
  "bang": 8917,
  "Rich": 8918,
  "appa": 8919,
  "=[]\u010a": 8920,
  "OTO": 8921,
  "JP": 8922,
  "\u00c5\u00bcy": 8923,
  "\u00e5\u0137": 8924,
  "RIPT": 8925,
  "\u00eb\u00a9": 8926,
  "avo": 8927,
  "\u0120MAP": 8928,
  "iang": 8929,
  "\u0120Bu": 8930,
  "\u0120Hex": 8931,
  "Req": 8932,
  "oko": 8933,
  "\u0120\"?": 8934,
  "}`,\u010a": 8935,
  "\u0120?:": 8936,
  "\u0120Wo": 8937,
  "\u0124\u00e6\u0137\u00b0": 8938,
  "\u0120kur": 8939,
  "\u0120&\u010a": 8940,
  "\u00c8\u013bi": 8941,
  "\u0120Yu": 8942,
  "}.\u010a": 8943,
  "z\u00c4\u0127": 8944,
  "nych": 8945,
  "\u0120UFC": 8946,
  "\u0120Gtk": 8947,
  "unny": 8948,
  "hum": 8949,
  "\u0109dev": 8950,
  "\u0120fon": 8951,
  "icut": 8952,
  "Eq": 8953,
  "ivan": 8954,
  "\u00e8\u00b5": 8955,
  "\u0120RID": 8956,
  "ipse": 8957,
  "ylum": 8958,
  "Dlg": 8959,
  "\u0120Meg": 8960,
  "DBG": 8961,
  "\u0120lub": 8962,
  "abad": 8963,
  "\u0120Rot": 8964,
  "osta": 8965,
  "\u00e8\u00bd\u00bd": 8966,
  "XP": 8967,
  "SUM": 8968,
  "Alex": 8969,
  "tion": 8970,
  "zel": 8971,
  "\u00ec\u0138": 8972,
  "\u0120UTC": 8973,
  "LT": 8974,
  "\u0120lol": 8975,
  "\u0120pf": 8976,
  "ogue": 8977,
  "\"+\u010a": 8978,
  "dem": 8979,
  "ERC": 8980,
  "\u0120_)": 8981,
  "\u00e7\u0124\u00b9": 8982,
  "\u0120CSV": 8983,
  "cg": 8984,
  "Less": 8985,
  "\u0120Tun": 8986,
  "\u0120Rd": 8987,
  "Bill": 8988,
  "\u0120ook": 8989,
  "\u0120]];": 8990,
  "--)\u010a": 8991,
  "\u00d9\u0124": 8992,
  "\u0120\u00d0\u00a1": 8993,
  "hill": 8994,
  "\u0120\").": 8995,
  "\u0120dl": 8996,
  "Vo": 8997,
  "\u00eb\u00b2": 8998,
  "God": 8999,
  "\u0120ios": 9000,
  "\u00e5\u013f": 9001,
  "UCK": 9002,
  "HOME": 9003,
  "okia": 9004,
  "\u0120Hey": 9005,
  "\u00ce\u00bf": 9006,
  "ropa": 9007,
  "\u0120cri": 9008,
  "Sil": 9009,
  "uant": 9010,
  "inho": 9011,
  "qq": 9012,
  "\u0120geo": 9013,
  "Logo": 9014,
  "!)\u010a": 9015,
  "\u0120MX": 9016,
  "\u0120DNS": 9017,
  "\u0120gra": 9018,
  "uez": 9019,
  "\u00e1\u00bb\u0133": 9020,
  "held": 9021,
  "\u00e3\u0123\u0141": 9022,
  "\u0120BS": 9023,
  "lua": 9024,
  "erek": 9025,
  "ISC": 9026,
  "apps": 9027,
  "\u00ea\u00b2": 9028,
  "\u00e5\u00af\u0128": 9029,
  "AGER": 9030,
  "mare": 9031,
  "Mvc": 9032,
  "dump": 9033,
  "\u0120Cer": 9034,
  "opol": 9035,
  "\u0120ion": 9036,
  "mq": 9037,
  "\u0120gef": 9038,
  "roc": 9039,
  "\u00c3\u00a1g": 9040,
  "\u0120EIF": 9041,
  "onus": 9042,
  "\u0120peu": 9043,
  "\u0120TD": 9044,
  "\u0120Cha": 9045,
  "ukan": 9046,
  "\u00e5\u012c\u00a8": 9047,
  "opup": 9048,
  "\u0120\"',": 9049,
  "ews": 9050,
  "\u00b6\u012a": 9051,
  "vang": 9052,
  "()]\u010a": 9053,
  "\u0120\u00ec\u0126": 9054,
  "LER": 9055,
  ")]\u010a\u010a": 9056,
  "\u00e6\u0140\u013e": 9057,
  "\u0120CAR": 9058,
  "Abs": 9059,
  "tot": 9060,
  "\u0120:,": 9061,
  "\u0120Pri": 9062,
  "\u0120PCI": 9063,
  "NOTE": 9064,
  "Tit": 9065,
  "\u0120ENT": 9066,
  "ANE": 9067,
  "\u0120';": 9068,
  "hw": 9069,
  "\u0120Eye": 9070,
  "town": 9071,
  "\u0120\u00d8\u00a8": 9072,
  "rios": 9073,
  "\u0120tet": 9074,
  "\u0120**)": 9075,
  "\u0120Jos": 9076,
  "ATTR": 9077,
  "\u0120Mun": 9078,
  "arak": 9079,
  "fv": 9080,
  "\u00e0\u00b9\u0122": 9081,
  "nda": 9082,
  "\u0120Hus": 9083,
  "umen": 9084,
  "!\u010a\u010a\u010a": 9085,
  "\u0120\u00c3\u00a2": 9086,
  "ingo": 9087,
  "Heap": 9088,
  "\u00d9\u0130": 9089,
  "Sym": 9090,
  "\u0120Ru": 9091,
  "\u0120IBM": 9092,
  "anh": 9093,
  "obil": 9094,
  "\u0120FE": 9095,
  "\u0120gli": 9096,
  "\u0120ved": 9097,
  "etti": 9098,
  "\u0120mn": 9099,
  "\u0120Kl": 9100,
  "duto": 9101,
  "uter": 9102,
  "ollo": 9103,
  "\u0120?>/": 9104,
  "ffe": 9105,
  "\u0120Sha": 9106,
  "\u0120Bos": 9107,
  "\u0120RB": 9108,
  "\u0120IDE": 9109,
  "\u0120\u00e0": 9110,
  "uds": 9111,
  "fred": 9112,
  "SES": 9113,
  "\u00e2\u0122\u0136a": 9114,
  "\u00eb\u00b3": 9115,
  "\u00eb\u00a6\u00ac": 9116,
  "\u0120Isa": 9117,
  "bast": 9118,
  "isy": 9119,
  "OOK": 9120,
  "imag": 9121,
  "\u00d0\u00bb\u00d1\u012e": 9122,
  "\u0120\u00c3\u012b": 9123,
  "\u00e5\u013d\u00be": 9124,
  "GI": 9125,
  "sep": 9126,
  "rito": 9127,
  "\u0120WW": 9128,
  "\u0120sar": 9129,
  "tic": 9130,
  "\u0120tcp": 9131,
  "CADE": 9132,
  "\u0120lbs": 9133,
  "GINE": 9134,
  "\u0120dag": 9135,
  "\u00e6\u0131\u0132": 9136,
  "Yet": 9137,
  "\u0120'\\\\": 9138,
  "\u0120Vo": 9139,
  "\u0120gs": 9140,
  "pher": 9141,
  "Jul": 9142,
  "amas": 9143,
  "\u0120nun": 9144,
  "Por": 9145,
  "aky": 9146,
  "\u00e7\u0130": 9147,
  "\u0120Dal": 9148,
  "\u00c2\u00b4": 9149,
  "\u00e3\u0124\u00af": 9150,
  "ungs": 9151,
  "mf": 9152,
  "weg": 9153,
  "ija": 9154,
  "\u0120chr": 9155,
  "kar": 9156,
  "IOS": 9157,
  "vn": 9158,
  "\u00e8\u00a8": 9159,
  "udes": 9160,
  "FXML": 9161,
  "\u0120Pdf": 9162,
  "\u0120{\\": 9163,
  "\u00d0\u00be\u00d0\u00bf": 9164,
  "\u0109pos": 9165,
  "WARD": 9166,
  "\u0120RX": 9167,
  "bris": 9168,
  "Gray": 9169,
  ".)\u010a": 9170,
  "\u0120+\"": 9171,
  "RIX": 9172,
  "YYYY": 9173,
  "spy": 9174,
  "\u00e3\u0123\u012e": 9175,
  "CAT": 9176,
  "\u00c2\u00ba": 9177,
  "Pen": 9178,
  ";;\u010a": 9179,
  "Iss": 9180,
  "PHA": 9181,
  "\u0120AA": 9182,
  "\u0120Ian": 9183,
  "\u0109app": 9184,
  "Love": 9185,
  "\u0120xhr": 9186,
  "\u0120\u00c2\u00bf": 9187,
  "\u00e5\u0131\u0133": 9188,
  "\u0120CAM": 9189,
  "Vars": 9190,
  "\u00ef\u00bc\u013c\u010a": 9191,
  "seen": 9192,
  "\u0120lig": 9193,
  "\u00e0\u00b8\u00b5": 9194,
  "Dead": 9195,
  "\u00e5\u00bc\u0131": 9196,
  "\u00c5\u013b": 9197,
  "\u0120MR": 9198,
  "\u0120dto": 9199,
  "\u0120;;\u010a": 9200,
  "cao": 9201,
  "sq": 9202,
  "\u0120mig": 9203,
  "\u0120frm": 9204,
  "utc": 9205,
  "\u0120IDs": 9206,
  "\u0120rou": 9207,
  "egg": 9208,
  "\u00d1\u0125\u00d1\u0129": 9209,
  "bye": 9210,
  "\u0120Vik": 9211,
  "\u0120lv": 9212,
  "\u0120Gib": 9213,
  "\u0120}]\u010a": 9214,
  "INUX": 9215,
  "\u00e5\u013d\u00bd": 9216,
  "\u0120-(": 9217,
  "\u0120Sit": 9218,
  "\u0120PF": 9219,
  "ufen": 9220,
  "\u0120rng": 9221,
  "July": 9222,
  "\u0120Kam": 9223,
  "ddie": 9224,
  "ALLY": 9225,
  "\u0120RA": 9226,
  "aaaa": 9227,
  "\u0120Vit": 9228,
  "\u0120Fer": 9229,
  "ixon": 9230,
  "acre": 9231,
  "\u0120Nap": 9232,
  "TES": 9233,
  "STD": 9234,
  "\u0120sta": 9235,
  "\u0120Wa": 9236,
  "reed": 9237,
  "*/,\u010a": 9238,
  "UIS": 9239,
  "\u0120Rou": 9240,
  "goto": 9241,
  "\u0120MON": 9242,
  "oons": 9243,
  "cern": 9244,
  "ties": 9245,
  "bet": 9246,
  "girl": 9247,
  "IK": 9248,
  "\u0120*>(": 9249,
  "\u0120WA": 9250,
  "othy": 9251,
  "aho": 9252,
  "gd": 9253,
  "ourt": 9254,
  "Vue": 9255,
  "kw": 9256,
  "\u0120Opp": 9257,
  "\u0120snd": 9258,
  "anan": 9259,
  "\u0120gy": 9260,
  "\u0109sub": 9261,
  "\u00ed\u012c\u00b8": 9262,
  "CAA": 9263,
  "\u0120lou": 9264,
  "\u00e7\u013b\u00bb": 9265,
  "\u0120rug": 9266,
  "\u0120Tu": 9267,
  "ulos": 9268,
  "\u0120\u00e2\u0126": 9269,
  "\u0120(`": 9270,
  "\u0120Enh": 9271,
  "\u00c3\u00bct": 9272,
  "SF": 9273,
  "CN": 9274,
  ":\";\u010a": 9275,
  "']\u010d\u010a": 9276,
  "\u0120dm": 9277,
  "\u0120ski": 9278,
  "War": 9279,
  "indi": 9280,
  "HOST": 9281,
  "\u0120Amy": 9282,
  "Fac": 9283,
  "\u0120gp": 9284,
  "cms": 9285,
  "zoom": 9286,
  "Men": 9287,
  "\u0120OH": 9288,
  "\u00e9\u0136\u013b": 9289,
  "\u0120m\u00c3\u00a1": 9290,
  "Emp": 9291,
  "\u00c3\u00b3s": 9292,
  "\u0120\u00ec\u012a\u013a": 9293,
  "evt": 9294,
  "park": 9295,
  "\u0120Dun": 9296,
  "\u0120soy": 9297,
  "\u0120Nar": 9298,
  "\u00eb\u0142\u00a5": 9299,
  "idor": 9300,
  "\u00e7\u0143": 9301,
  "\u0120Naz": 9302,
  "neg": 9303,
  "\u0120c\u00c3\u00b3": 9304,
  "\u0120Unc": 9305,
  "hdr": 9306,
  "ako": 9307,
  "\u00d1\u0124\u00d1\u012e": 9308,
  "Bin": 9309,
  "\u0120UIS": 9310,
  "ADO": 9311,
  "akte": 9312,
  "Want": 9313,
  "objc": 9314,
  "eso": 9315,
  "ibo": 9316,
  "Come": 9317,
  "gel": 9318,
  "xyz": 9319,
  "ikel": 9320,
  "obra": 9321,
  "asso": 9322,
  "unde": 9323,
  "Os": 9324,
  "\u0120OW": 9325,
  "\u0120Hab": 9326,
  "\u0120LD": 9327,
  "\u0120bip": 9328,
  "\u0120Tam": 9329,
  "\u0120MLS": 9330,
  "\u0120FX": 9331,
  "\u0109HX": 9332,
  "\u0120Sys": 9333,
  "\u0120Cin": 9334,
  "Feed": 9335,
  "\u0120\u00ec\u012d": 9336,
  "Fig": 9337,
  "BM": 9338,
  "\u00e8\u0122\u0127": 9339,
  "\u00e8\u00ae\u00a4": 9340,
  "onne": 9341,
  "\u0120\">": 9342,
  "REQ": 9343,
  "\u0120:\u010d\u010a": 9344,
  "\u0120dla": 9345,
  "owie": 9346,
  "\u0120s\u00c4\u0125": 9347,
  "\u0120gle": 9348,
  "\u0120aa": 9349,
  "\u0120bod": 9350,
  "lsx": 9351,
  "boys": 9352,
  "\u0120wat": 9353,
  "hem": 9354,
  "IFF": 9355,
  "\u0120UV": 9356,
  "SUB": 9357,
  "llvm": 9358,
  "Lab": 9359,
  "ois": 9360,
  "asil": 9361,
  "\u00e8\u00af\u00af": 9362,
  "\u0120Nag": 9363,
  "\u0120mie": 9364,
  "\u0120BP": 9365,
  "\u0120TP": 9366,
  "CFG": 9367,
  "\u00e6\u0130\u00a5": 9368,
  "\u0120(#": 9369,
  "rain": 9370,
  "\u0120abb": 9371,
  "\u0120caf": 9372,
  "peek": 9373,
  "/\u010d\u010a": 9374,
  "MOVE": 9375,
  "pest": 9376,
  "Nib": 9377,
  "\u0120Emb": 9378,
  "tau": 9379,
  "\u0120TF": 9380,
  "\u00e9\u0123": 9381,
  "Pub": 9382,
  "vari": 9383,
  "\u0120geb": 9384,
  "TN": 9385,
  "\u0120naj": 9386,
  "fft": 9387,
  "esta": 9388,
  "\u0120\u00c5\u013d": 9389,
  "Ray": 9390,
  "\u00e3\u0123\u0128": 9391,
  "\u0120LS": 9392,
  "orie": 9393,
  "ADDR": 9394,
  "\u00e6\u00b0": 9395,
  "fits": 9396,
  "\u0120ssh": 9397,
  "\u0120Zip": 9398,
  "\u00c4\u00b1r": 9399,
  "\u00ef\u00b8": 9400,
  "pick": 9401,
  "\u0120Fu": 9402,
  "\u0120(:": 9403,
  "\u00e5\u0127\u00b3": 9404,
  "\u00e9\u0129\u012f": 9405,
  "RB": 9406,
  "\u0120VER": 9407,
  "jour": 9408,
  "\u00e3\u0124\u012d": 9409,
  "\u0120RSS": 9410,
  "awks": 9411,
  "\u00ec\u0142\u0137": 9412,
  "urse": 9413,
  "\u0120XX": 9414,
  "qty": 9415,
  "bm": 9416,
  "\u0120Ko": 9417,
  "\u0109GL": 9418,
  "\u00ec\u012d\u013e": 9419,
  "\u0120\u00ef\u00bf\u00bd": 9420,
  "\u0120\u00c8\u013bi": 9421,
  "\u00c3\u00a1c": 9422,
  "\u0120Bin": 9423,
  "\u00eb\u0135\u013e": 9424,
  "\u0120><": 9425,
  "\u0120Mul": 9426,
  "vote": 9427,
  "urf": 9428,
  "SEL": 9429,
  "\u0120FDA": 9430,
  "\u00d1\u012a\u00d0\u00b8": 9431,
  "\u0125\u013f": 9432,
  "\u0120ln": 9433,
  "alah": 9434,
  "\u0120CRC": 9435,
  "CLE": 9436,
  "dw": 9437,
  "\u0120Jag": 9438,
  "\u00e3\u0124\u0134": 9439,
  "zeit": 9440,
  "rpc": 9441,
  "\u00c3\u0143c": 9442,
  "MX": 9443,
  "gan": 9444,
  "\u0120ei": 9445,
  "\u00e7\u00ac\u00ac": 9446,
  "ACC": 9447,
  "\u0120Bib": 9448,
  "INAL": 9449,
  "\u00c2\u00b2": 9450,
  "\u0120EOF": 9451,
  "\u0120Ki": 9452,
  "\u00c5\u00a3": 9453,
  "\u0120(.": 9454,
  "\u0120cir": 9455,
  "vron": 9456,
  "\u0120lav": 9457,
  "\u0120pom": 9458,
  "preg": 9459,
  "\u00e5\u013e\u00b0": 9460,
  "\u00e3\u0123\u0124": 9461,
  "UCH": 9462,
  "\u0120yo": 9463,
  "Sem": 9464,
  "ISTR": 9465,
  "\u00e5\u00a6\u0124": 9466,
  "\u0120kw": 9467,
  "ONS": 9468,
  "RPC": 9469,
  ")]\u010d\u010a": 9470,
  "\u0120Sor": 9471,
  "mall": 9472,
  "\u0120vtk": 9473,
  "Ma": 9474,
  "ogan": 9475,
  "igi": 9476,
  "\u0120Wol": 9477,
  "opia": 9478,
  "/\"\u010a": 9479,
  "ahn": 9480,
  "\u0120PhD": 9481,
  "].\u010a\u010a": 9482,
  "NON": 9483,
  "\u0120Thr": 9484,
  "\u0120CY": 9485,
  "\u0120atr": 9486,
  "\u00c5\u0124y": 9487,
  "HITE": 9488,
  "\u0109ID": 9489,
  "reo": 9490,
  "Phil": 9491,
  "tok": 9492,
  "\u0120jar": 9493,
  "Los": 9494,
  "Mal": 9495,
  "\u00e0\u00a5\u012f": 9496,
  "\u0120pir": 9497,
  "\u0120TL": 9498,
  "\u0120Kre": 9499,
  "Ship": 9500,
  "\u0120SG": 9501,
  "hir": 9502,
  "\u00e8\u00ae\u00be": 9503,
  "'.\u010a\u010a": 9504,
  "\u0120Abd": 9505,
  "deal": 9506,
  "bill": 9507,
  "\u0120Io": 9508,
  "chip": 9509,
  "\u0120uv": 9510,
  "\u0120VI": 9511,
  "\u0120{-": 9512,
  "\u00e6\u012e": 9513,
  "\u0120QUE": 9514,
  "dic": 9515,
  "\u0120geh": 9516,
  "ods": 9517,
  "wiki": 9518,
  "inel": 9519,
  "\u0120sag": 9520,
  "\u00e3\u0123\u0137": 9521,
  "pdo": 9522,
  "\u0120NPC": 9523,
  "jas": 9524,
  "ahun": 9525,
  "\u0120GDP": 9526,
  "\u00e7\u013d\u00ae": 9527,
  "\u0120\u00e2\u0122\u012d": 9528,
  "Je": 9529,
  "ARGE": 9530,
  "\u00ce\u00b9": 9531,
  "usp": 9532,
  "\u0120BMW": 9533,
  "\u00e5\u00bc\u0122": 9534,
  "\u00e9\u00bb": 9535,
  "\u0120bou": 9536,
  "\u00c3\u00bb": 9537,
  "\u0120hug": 9538,
  "ugu": 9539,
  "hape": 9540,
  "disp": 9541,
  "\u0120tl": 9542,
  "\u0120fg": 9543,
  "tees": 9544,
  "\u00c3\u00a4l": 9545,
  "OID": 9546,
  "\u0120{*": 9547,
  "\u0120ate": 9548,
  ">.\u010a": 9549,
  "iefs": 9550,
  "\u00d8\u0143": 9551,
  "\u00e4\u00ba\u012d": 9552,
  "\u0120[]*": 9553,
  "\u0120PP": 9554,
  "AFE": 9555,
  "\u0120GE": 9556,
  "\u0120ie": 9557,
  "\u0120STD": 9558,
  "KB": 9559,
  "orus": 9560,
  "uber": 9561,
  "NING": 9562,
  "stri": 9563,
  "\u0120Tip": 9564,
  "\u0120zn": 9565,
  "inet": 9566,
  "uffy": 9567,
  "\u0120XL": 9568,
  "orb": 9569,
  "ikk": 9570,
  "\u0120Fit": 9571,
  "expl": 9572,
  "beh": 9573,
  "\u0120#-": 9574,
  "\u0120SMS": 9575,
  "vh": 9576,
  "\u00e2\u0122\u0132": 9577,
  "AH": 9578,
  "\u0109sc": 9579,
  "sson": 9580,
  "eded": 9581,
  "\u00bd\u00e6\u0137\u00b0": 9582,
  "\u0120FF": 9583,
  "ildo": 9584,
  "\u0120ric": 9585,
  "\u0120Bou": 9586,
  "\u00ed\u0126": 9587,
  "ilib": 9588,
  "mov": 9589,
  "\u0120Nam": 9590,
  "\u00e6\u00af": 9591,
  "Pref": 9592,
  "\u0120Gam": 9593,
  "\u0120hav": 9594,
  "\u0120UE": 9595,
  "\u0120pts": 9596,
  "icts": 9597,
  "\u0120pec": 9598,
  "\u0120l\u00c3\u00a4": 9599,
  "\u00e6\u00b2": 9600,
  "fee": 9601,
  "\u0120Eff": 9602,
  "\u0120Tea": 9603,
  "BSD": 9604,
  "\u0120Ord": 9605,
  "akk": 9606,
  "NL": 9607,
  "\u0120PG": 9608,
  "bol": 9609,
  "tap": 9610,
  "love": 9611,
  "\u0120oss": 9612,
  "odox": 9613,
  "\u0120CK": 9614,
  "pkg": 9615,
  "uu": 9616,
  "ATAL": 9617,
  "\u0120unh": 9618,
  "sth": 9619,
  "\u0120TB": 9620,
  "Sun": 9621,
  "FROM": 9622,
  "\u0120Dir": 9623,
  "XXX": 9624,
  "feld": 9625,
  "\u00d1\u0122\u00d0\u00b8": 9626,
  "imir": 9627,
  "\u0120{{$": 9628,
  "\u0120'@/": 9629,
  "orp": 9630,
  "yme": 9631,
  "Sch": 9632,
  "\u0120jog": 9633,
  "\u0120Abu": 9634,
  "\u0120rim": 9635,
  "\u0120&'": 9636,
  "poll": 9637,
  "\u00ce\u00b5": 9638,
  "aru": 9639,
  "\u0120Kay": 9640,
  "film": 9641,
  "f\u00c3\u00bc": 9642,
  "pv": 9643,
  "\u00d0\u013a": 9644,
  "Sets": 9645,
  "fan": 9646,
  "\u00c2\u00bf": 9647,
  "\u0120g\u00c3\u00b6": 9648,
  "\u0120Vel": 9649,
  "\u00c3\u00bcss": 9650,
  "bery": 9651,
  "Para": 9652,
  "ILD": 9653,
  "\u0120toe": 9654,
  "alph": 9655,
  "Hero": 9656,
  "\u0120wil": 9657,
  "\u0120m\u00c3\u00a5": 9658,
  "HUD": 9659,
  "\u0120fog": 9660,
  "\u0120HO": 9661,
  "Hour": 9662,
  "\u0120LIB": 9663,
  "\u00e6\u0126": 9664,
  "\u0120Anc": 9665,
  "\u0120nib": 9666,
  "thal": 9667,
  "\u0109rc": 9668,
  "ATES": 9669,
  "kie": 9670,
  "\u0120s\u00c3\u00b8": 9671,
  "\u00e3\u0124\u012c": 9672,
  "\u00d0\u00bb\u00d0\u00b0": 9673,
  "\u0120{!": 9674,
  "IMG": 9675,
  "\u0120Ald": 9676,
  "fen": 9677,
  "Nick": 9678,
  "ENV": 9679,
  "achi": 9680,
  "\u0120ef": 9681,
  "\u0120\u00ef\u00bc\u013c": 9682,
  "rama": 9683,
  "\u0120(;": 9684,
  "ashi": 9685,
  "proj": 9686,
  "\u0120spa": 9687,
  "\u00ec\u0137": 9688,
  "wave": 9689,
  "edin": 9690,
  "\u0120Fri": 9691,
  "apos": 9692,
  "Da": 9693,
  "hole": 9694,
  "Cong": 9695,
  "uba": 9696,
  "arel": 9697,
  "\u00e0\u00b8\u0129": 9698,
  "\u0120Pun": 9699,
  "\u00e5\u0131\u00af": 9700,
  "asha": 9701,
  "odi": 9702,
  "QR": 9703,
  "IDs": 9704,
  "jspx": 9705,
  "Js": 9706,
  "\u0120ARM": 9707,
  "/',\u010a": 9708,
  "disk": 9709,
  "CHO": 9710,
  "\u0120Bug": 9711,
  "ikh": 9712,
  "mag": 9713,
  "\u0120\u00c3\u013e": 9714,
  "\u0120UC": 9715,
  "ibil": 9716,
  "VERY": 9717,
  "\u0120\u00eb\u00b3": 9718,
  "IRT": 9719,
  "\u0120Vac": 9720,
  "Soft": 9721,
  "\u00e8\u00a6\u0123": 9722,
  "\u00e4\u00bb\u00a3": 9723,
  "\u00ef\u00b8\u0131": 9724,
  "\u0120v\u00c3\u0143": 9725,
  "\u0120SI": 9726,
  "\u0120Jar": 9727,
  "pref": 9728,
  "<\u010a": 9729,
  "ril": 9730,
  "\u0120Kan": 9731,
  "ecn": 9732,
  "fake": 9733,
  "\u0120AK": 9734,
  "\u0120rab": 9735,
  "\u0120Ot": 9736,
  "Bars": 9737,
  "\u0120`<": 9738,
  "\u0120|--": 9739,
  "AJ": 9740,
  "fy": 9741,
  "avn": 9742,
  "\u0120kut": 9743,
  "\u0120sug": 9744,
  "ihad": 9745,
  "dh": 9746,
  "rup": 9747,
  "Girl": 9748,
  "\u0109sql": 9749,
  "\u0109\u0120\u010a": 9750,
  "\u0120VS": 9751,
  "\u00c4\u0123": 9752,
  "SENT": 9753,
  "umph": 9754,
  "kh": 9755,
  "Dear": 9756,
  "'\u00c3\u00a9": 9757,
  "\u0120sg": 9758,
  "\u0120Maj": 9759,
  "\u0109go": 9760,
  "\u0120Sad": 9761,
  "Pack": 9762,
  "\u0120ROM": 9763,
  "\u0120peg": 9764,
  "\u0120lan": 9765,
  ".*\u010a": 9766,
  "VL": 9767,
  "\u0120'*'": 9768,
  "eri": 9769,
  "\u0120egy": 9770,
  "\u00e5\u00b0\u0131": 9771,
  "\u0120Ton": 9772,
  "RNA": 9773,
  "osi": 9774,
  "HB": 9775,
  "DEC": 9776,
  "REAT": 9777,
  "\u0120SUM": 9778,
  ">\u010d\u010d\u010a": 9779,
  "\u0120sud": 9780,
  "ar\u00c3\u00a1": 9781,
  "\u0120VPN": 9782,
  ")],\u010a": 9783,
  "usa": 9784,
  "\u0120(~": 9785,
  "\u0120RUN": 9786,
  "psi": 9787,
  "oka": 9788,
  "\u00e9\u0122\u012b": 9789,
  "serv": 9790,
  "zw": 9791,
  "preh": 9792,
  "\u0120NSA": 9793,
  "\u0120xy": 9794,
  "\u00e0\u00b8\u00b4": 9795,
  "}),\u010a": 9796,
  "\u0120hid": 9797,
  "\u0120&_": 9798,
  "\u0120ile": 9799,
  "obic": 9800,
  "\u0120DX": 9801,
  "\u0120RM": 9802,
  "Hy": 9803,
  "\u013b\u00a8": 9804,
  "\u0120Bh": 9805,
  "?\u010a\u010a\u010a": 9806,
  "iov": 9807,
  "amon": 9808,
  "repr": 9809,
  "\u00e9\u0125": 9810,
  "\u0109fi": 9811,
  "\u0120Dry": 9812,
  "\u00e6\u0142\u0129": 9813,
  "ISS": 9814,
  "Fun": 9815,
  "\u00e6\u013a\u0130": 9816,
  "AGIC": 9817,
  "umar": 9818,
  "\u00e7\u00bc\u0138": 9819,
  "\u0120LC": 9820,
  "\u0120ech": 9821,
  "\u00c3\u00a4d": 9822,
  "\u0120AZ": 9823,
  "regs": 9824,
  "Peer": 9825,
  "\u0120Kin": 9826,
  "FOR": 9827,
  "\u0120DD": 9828,
  "avan": 9829,
  "DESC": 9830,
  "\u00e7\u0126": 9831,
  "\u00e6\u00b1\u0124": 9832,
  "jpeg": 9833,
  "\u0120TN": 9834,
  "bove": 9835,
  "OPEN": 9836,
  "\u0120PB": 9837,
  "\u00c2\u00b0C": 9838,
  "\u0120osc": 9839,
  "')}\u010a": 9840,
  "alog": 9841,
  "atti": 9842,
  "\u0120\u00c5\u00be": 9843,
  "\u0120FAQ": 9844,
  "\u0120LAB": 9845,
  "\u0120Rol": 9846,
  "adin": 9847,
  "\u00e2\u0124\u0123": 9848,
  "cord": 9849,
  "tabs": 9850,
  "ICA": 9851,
  "dia": 9852,
  "\u0120m\u00c3\u00a9": 9853,
  "Flat": 9854,
  "Qual": 9855,
  "\u00e3\u0125\u00a9": 9856,
  "\u0120Bec": 9857,
  "Zip": 9858,
  "\u00e3\u0123\u012d": 9859,
  "she": 9860,
  "ksi": 9861,
  "Stmt": 9862,
  "\u0120'?": 9863,
  "\u0120dyn": 9864,
  "\u00d9\u0125": 9865,
  "\u00ec\u0138\u00b4": 9866,
  "\u0120dod": 9867,
  "\u0120s\u00c3\u00b3": 9868,
  "ONLY": 9869,
  "mbH": 9870,
  "udp": 9871,
  "AML": 9872,
  "fh": 9873,
  "jobs": 9874,
  "\u00e5\u012a\u0139": 9875,
  "\u0120fm": 9876,
  "\u0120Php": 9877,
  "\u00e7\u00bd\u0133": 9878,
  "\u0120Gem": 9879,
  "wort": 9880,
  "TB": 9881,
  "\u0120Ye": 9882,
  "bps": 9883,
  "FFF": 9884,
  "\u00e4\u00b8\u0129": 9885,
  "relu": 9886,
  "\u0120Mut": 9887,
  "anth": 9888,
  "\u00e6\u013e\u0122": 9889,
  "had": 9890,
  "Too": 9891,
  "\u0120hw": 9892,
  "}`\u010a": 9893,
  "\u0120Dot": 9894,
  "DN": 9895,
  "anic": 9896,
  "\u0120Kur": 9897,
  "ije": 9898,
  "\u0120ket": 9899,
  "insi": 9900,
  "\u0120\u00e6\u0138": 9901,
  "pers": 9902,
  "UDA": 9903,
  "\u0120KN": 9904,
  ">}\u010a": 9905,
  "UY": 9906,
  "\u0120Lar": 9907,
  "\u00e0\u00b0": 9908,
  "brit": 9909,
  "sume": 9910,
  "sed": 9911,
  "\u00ec\u013f\u00b8": 9912,
  "\u0120Bah": 9913,
  "loon": 9914,
  "\u013d\u00e5\u00bb\u00ba": 9915,
  "fone": 9916,
  "ughs": 9917,
  "Tax": 9918,
  "Sent": 9919,
  "\u0120Eve": 9920,
  "\u0120v\u00c3\u00a6": 9921,
  "kc": 9922,
  "\u0120rho": 9923,
  "\u00d8\u00a7\u00d9\u0126": 9924,
  "obar": 9925,
  "CAP": 9926,
  "\u0120nt": 9927,
  "\u0120',\u010a": 9928,
  "\u0120vic": 9929,
  "\u0120nv": 9930,
  "lx": 9931,
  "nost": 9932,
  "\u0120DIY": 9933,
  "ablo": 9934,
  "Leaf": 9935,
  "cko": 9936,
  "DOC": 9937,
  "\u0120Tex": 9938,
  "xfe": 9939,
  "reb": 9940,
  "\u0109sum": 9941,
  "\u00e7\u00a1": 9942,
  "{}\u010a\u010a": 9943,
  "\u0120\"\u010d\u010a": 9944,
  "zm": 9945,
  "\u0120Haz": 9946,
  "ifo": 9947,
  "Blur": 9948,
  "\u00e0\u00af": 9949,
  "INIT": 9950,
  "rise": 9951,
  "\u0120REL": 9952,
  "alic": 9953,
  "\u0120aws": 9954,
  "\u0120*.": 9955,
  "SDK": 9956,
  "quit": 9957,
  "Gl": 9958,
  "\u00e5\u013b\u00a8": 9959,
  "haus": 9960,
  "\u0120IPv": 9961,
  "\u0120Kid": 9962,
  "\u0120Alb": 9963,
  "\u00c3\u00a4ch": 9964,
  "\u0120pix": 9965,
  "\u0120Cum": 9966,
  "ikt": 9967,
  "Tx": 9968,
  "\u0109wp": 9969,
  "\u0120^=": 9970,
  "\u0120lam": 9971,
  "MF": 9972,
  "quad": 9973,
  "CPU": 9974,
  "aggi": 9975,
  "MSC": 9976,
  "\u0120Wr": 9977,
  "\u0120bor": 9978,
  "\u0120Ui": 9979,
  "lit": 9980,
  "frm": 9981,
  "\u0120POL": 9982,
  "\u0120Pap": 9983,
  "\u0120Ci": 9984,
  "ului": 9985,
  "cep": 9986,
  "\u0120Led": 9987,
  "\u0120Fo": 9988,
  "pra": 9989,
  "\u0120Kap": 9990,
  "Flex": 9991,
  "Hook": 9992,
  "rors": 9993,
  "\u0120Rew": 9994,
  "\u00d7\u0137": 9995,
  "\u0120Cul": 9996,
  "ymph": 9997,
  "\u0120}),": 9998,
  "\u0109to": 9999,
  "HAL": 10000,
  "iped": 10001,
  "cue": 10002,
  "**/\u010a": 10003,
  "peri": 10004,
  "nf": 10005,
  "Ser": 10006,
  "\u0120l\u00c3\u0143": 10007,
  "song": 10008,
  "\u0120Tob": 10009,
  "\u0120DP": 10010,
  "rw": 10011,
  "eing": 10012,
  "Must": 10013,
  "\u0120ole": 10014,
  "\u00e0\u00b8\u00a5": 10015,
  "Cog": 10016,
  "\u0120Zen": 10017,
  "zes": 10018,
  "\u00e2\u0124\u0124": 10019,
  "\u0120sx": 10020,
  "\u0120ys": 10021,
  "DEV": 10022,
  "IAS": 10023,
  "\u0120tau": 10024,
  "mino": 10025,
  "\u0120[['": 10026,
  "upp": 10027,
  "\u00e1\u00ba\u00a5": 10028,
  "\u00e6\u012b\u0122": 10029,
  "\u0120fot": 10030,
  "etur": 10031,
  "\u00e5\u0128\u0127": 10032,
  "oshi": 10033,
  "Et": 10034,
  "pw": 10035,
  "\u0120MVP": 10036,
  "\u0120OC": 10037,
  "uti": 10038,
  "Ty": 10039,
  "\u00e3\u0124\u0124": 10040,
  "UNK": 10041,
  "\u00d0\u00b5\u00d0\u00b7": 10042,
  "DMI": 10043,
  "\u00e2\u013b\u0122": 10044,
  "\u0120sla": 10045,
  "lhs": 10046,
  "INA": 10047,
  "\u0120\u010a\u0120\u010a": 10048,
  "\u0120Geo": 10049,
  "\u0120\u00c3\u00a9l": 10050,
  "\u00e4\u00bd\u0135": 10051,
  "\u0120bem": 10052,
  "\u0120RCC": 10053,
  "atta": 10054,
  "\u0120FB": 10055,
  "\u0109The": 10056,
  "\u00e9\u0122\u013c": 10057,
  "MG": 10058,
  "quiz": 10059,
  "gra": 10060,
  "\u00e5\u012c\u00a1": 10061,
  "\u0120kor": 10062,
  "ADC": 10063,
  "MEM": 10064,
  "\u0120lun": 10065,
  "poon": 10066,
  "SER": 10067,
  "\u00e6\u0143\u00a4": 10068,
  "Tipo": 10069,
  "lbl": 10070,
  "Care": 10071,
  "Dem": 10072,
  "\u0120Whe": 10073,
  "\u0120ldc": 10074,
  "\u00e3\u0124\u012e": 10075,
  "\u00e5\u0137\u0128": 10076,
  "ucht": 10077,
  "bee": 10078,
  "know": 10079,
  "\u00e5\u00ba\u0131": 10080,
  "\u0120Au": 10081,
  "\u0120Cad": 10082,
  "eat": 10083,
  "\u00ec\u013f\u00bc": 10084,
  "\u0109the": 10085,
  "\u0120j\u00c3\u00a1": 10086,
  "\u0120dre": 10087,
  "\u0120fid": 10088,
  "\u00e5\u012e\u0138": 10089,
  "Priv": 10090,
  "\u0120\u00ec\u0124\u00ac": 10091,
  "WF": 10092,
  "\u0120Scr": 10093,
  "\u0120Ana": 10094,
  "\u0120cid": 10095,
  "\u0120Nan": 10096,
  "TAG": 10097,
  "nea": 10098,
  "\u0120sau": 10099,
  "\u0120NL": 10100,
  ");}\u010a": 10101,
  "cwd": 10102,
  "Fast": 10103,
  "\u0120NaN": 10104,
  "\u0120\u00e8\u00bf": 10105,
  "\u0120_$": 10106,
  "XYZ": 10107,
  "\u0120=\u010d\u010a": 10108,
  "\u00eb\u0131": 10109,
  "iske": 10110,
  "\u0120\"..": 10111,
  "\u0120hs": 10112,
  "ijd": 10113,
  "\u00e3\u0123\u012c": 10114,
  "igos": 10115,
  "esar": 10116,
  "\u0120Rah": 10117,
  "\u00c3\u00a4ll": 10118,
  "\u00e7\u00a9": 10119,
  "EEK": 10120,
  "qtt": 10121,
  "IDI": 10122,
  "\u0120Nil": 10123,
  ">)\u010a": 10124,
  "alan": 10125,
  "\u00eb\u00a9\u00b4": 10126,
  "ADA": 10127,
  "\u0120shy": 10128,
  "\u0120==>": 10129,
  "\u00da\u00a9": 10130,
  "Okay": 10131,
  "\u00e6\u00b6\u012a": 10132,
  "uevo": 10133,
  "\u0120Nu": 10134,
  "\u0120\\\"%": 10135,
  "CES": 10136,
  "EXP": 10137,
  "Pid": 10138,
  "\u00e9\u013a": 10139,
  "\u0120inp": 10140,
  "Tor": 10141,
  "Roll": 10142,
  "RG": 10143,
  "itu": 10144,
  "a\u00c3\u00b1": 10145,
  "\u0120Lag": 10146,
  "\u00e5\u0132\u00a6": 10147,
  "\u0120Ku": 10148,
  "Bob": 10149,
  "eny": 10150,
  "\u00e3\u0124\u012b": 10151,
  "\u0120Mol": 10152,
  "\u0120qs": 10153,
  "IRM": 10154,
  "fid": 10155,
  "\u0120Ple": 10156,
  "tro": 10157,
  "\u00d7\u013b": 10158,
  "\u00c3\u00b6s": 10159,
  "lld": 10160,
  "obox": 10161,
  "Got": 10162,
  "\u00e4\u00bf\u013f": 10163,
  "\u00e6\u0125": 10164,
  "\u0120RV": 10165,
  "\u00c4\u00b1\u00c5\u0141": 10166,
  "offs": 10167,
  "\u0120\u00ef": 10168,
  "yped": 10169,
  "rah": 10170,
  "\u00e2\u0122\u013f)": 10171,
  "\u0120vu": 10172,
  "\u0120Dad": 10173,
  "setq": 10174,
  "\u0120enf": 10175,
  "ski": 10176,
  "Soup": 10177,
  "\u0120%\u010a": 10178,
  "\u0120Ric": 10179,
  "DOT": 10180,
  "\u00e4\u00bd\u00bf": 10181,
  "osal": 10182,
  "\u0120Mis": 10183,
  "\u0120SYS": 10184,
  "uffs": 10185,
  "\u00e6\u00ac\u00a1": 10186,
  "\u0120Lic": 10187,
  "clo": 10188,
  "\u0120Cho": 10189,
  "\u0109Il": 10190,
  "clk": 10191,
  "pit": 10192,
  "\u0120\u00e2\u0138\u012a": 10193,
  "Wall": 10194,
  ").\u010d\u010a": 10195,
  "amac": 10196,
  "\u00e3\u0125\u00ab": 10197,
  "urst": 10198,
  "bru": 10199,
  "Das": 10200,
  "uder": 10201,
  "fu": 10202,
  "\u0120gd": 10203,
  "Jack": 10204,
  "\u0120zz": 10205,
  "warf": 10206,
  "FTER": 10207,
  "ICLE": 10208,
  "\u00d0\u00b5\u00d0\u00b2": 10209,
  "aaa": 10210,
  "\u00e6\u013e\u00ba": 10211,
  "Anti": 10212,
  "ICO": 10213,
  "sale": 10214,
  "\u0120Vk": 10215,
  "Nor": 10216,
  "\u00e5\u00af\u00b9": 10217,
  "ARED": 10218,
  "agle": 10219,
  "Ten": 10220,
  "\u00d1\u0123\u00d0\u00bf": 10221,
  "\u0120Lam": 10222,
  "\u0120Ole": 10223,
  "\u0120pwd": 10224,
  "Hel": 10225,
  "\u0120mam": 10226,
  "\u0120\"_\"": 10227,
  "elin": 10228,
  "\u0120ups": 10229,
  "\u0120TT": 10230,
  "\u0120ARG": 10231,
  "\u00e9\u0129\u0131": 10232,
  "qp": 10233,
  "redd": 10234,
  "\u0120dv": 10235,
  "usk": 10236,
  "REAK": 10237,
  "\u0120DH": 10238,
  "\u00d8\u00b4": 10239,
  "\u0120ENV": 10240,
  "Sys": 10241,
  "\u00c3\u0124": 10242,
  "cade": 10243,
  "\u0120{(": 10244,
  "ncmp": 10245,
  "\u0120\u00c4\u012f": 10246,
  "\u0109com": 10247,
  "ivi": 10248,
  "\u0120Hem": 10249,
  "\u0120asm": 10250,
  "ICH": 10251,
  "\u00ec\u0126\u00b1": 10252,
  "\u0120itr": 10253,
  "\u0120GST": 10254,
  "robe": 10255,
  "EEE": 10256,
  "ADE": 10257,
  "orf": 10258,
  "\u00eb\u0132": 10259,
  "\u0120jan": 10260,
  "ellt": 10261,
  "}')\u010a": 10262,
  "\u0120!!!": 10263,
  "aj\u00c4\u0127": 10264,
  "\u00e6\u0141\u00a5": 10265,
  "deep": 10266,
  "\u0120\\$": 10267,
  "\u0120\u00ce\u00bc": 10268,
  "Far": 10269,
  "iasm": 10270,
  "Po": 10271,
  "\u0120CAL": 10272,
  "\u0120'{}": 10273,
  "Arm": 10274,
  "\u0120ecc": 10275,
  "Mag": 10276,
  "\u00b7\u00b8": 10277,
  "Feel": 10278,
  "\u0120Lik": 10279,
  "cljs": 10280,
  "Ha": 10281,
  "\u00e9\u0125\u00a8": 10282,
  "\u0120AJ": 10283,
  "\u0120VT": 10284,
  "\u0120dej": 10285,
  "\u0120hu": 10286,
  "\u0120>>=": 10287,
  "\u0120DL": 10288,
  "\u0120zap": 10289,
  "trip": 10290,
  "\u00d0\u00b8\u00d1\u0129": 10291,
  "\u0120\u00eb\u00a7": 10292,
  "prog": 10293,
  "boo": 10294,
  "utz": 10295,
  "orum": 10296,
  "dess": 10297,
  "\u0120xl": 10298,
  ")')\u010a": 10299,
  "/'\u010a": 10300,
  "FORE": 10301,
  "Song": 10302,
  "VAR": 10303,
  "azar": 10304,
  "ngx": 10305,
  "\u00d1\u0125\u00d1\u0130": 10306,
  "sto": 10307,
  "Due": 10308,
  "emu": 10309,
  "BAR": 10310,
  "\u00e6\u0122\u00a7": 10311,
  "eous": 10312,
  "vv": 10313,
  "san": 10314,
  "esi": 10315,
  "***\u010a": 10316,
  "\u00d8\u00ac": 10317,
  "nee": 10318,
  "\u00e5\u0134\u012e": 10319,
  "\u0120rp": 10320,
  "fact": 10321,
  "\u0109len": 10322,
  "DAY": 10323,
  "lip": 10324,
  "\u0120Eq": 10325,
  "\u00e6\u013d\u00b4": 10326,
  "\u0120swo": 10327,
  "eni": 10328,
  "thus": 10329,
  "SHA": 10330,
  "ilk": 10331,
  "\u0120Het": 10332,
  "\u00e9\u0138": 10333,
  "gif": 10334,
  "ITAL": 10335,
  "\u0120Jaw": 10336,
  "frag": 10337,
  "=[\u010a": 10338,
  "\u0109cur": 10339,
  "edar": 10340,
  "\u0120gad": 10341,
  "\u0120\u00ce\u00b2": 10342,
  "\u0120fx": 10343,
  "hips": 10344,
  "izi": 10345,
  "\u0120ach": 10346,
  "\u0120Eli": 10347,
  "\u00e2\u012a\u0134": 10348,
  "orna": 10349,
  "\u0120cps": 10350,
  "\u0120@{": 10351,
  "\u00ce\u00bd": 10352,
  "Fort": 10353,
  "\u0120Chi": 10354,
  "edic": 10355,
  "\u0120NYC": 10356,
  "\u0120Tak": 10357,
  "IOD": 10358,
  "nat": 10359,
  "loys": 10360,
  "uess": 10361,
  "ocoa": 10362,
  "\u0120nog": 10363,
  "boss": 10364,
  "\u0120Vor": 10365,
  "ilio": 10366,
  "\u0120AW": 10367,
  "NB": 10368,
  "tex": 10369,
  "\u0120Sri": 10370,
  "\u0120Zh": 10371,
  "\u00e8\u012b": 10372,
  "enen": 10373,
  "spe": 10374,
  "acji": 10375,
  "\u0120IRS": 10376,
  "adc": 10377,
  "oard": 10378,
  "\u0120'+'": 10379,
  "rans": 10380,
  "\u0120\u00e2\u0136\u0124": 10381,
  "\u00d0\u00b0\u00d0\u00b3": 10382,
  "ibus": 10383,
  "\u0120HI": 10384,
  "\u0120HS": 10385,
  "=\"\"\u010a": 10386,
  "\u0120\u00e8\u00ae": 10387,
  "deck": 10388,
  "\u0120Foo": 10389,
  "appe": 10390,
  "poly": 10391,
  "!\",\u010a": 10392,
  "\u0120WWE": 10393,
  "ROS": 10394,
  "\u0120Ore": 10395,
  "\u00e5\u0132\u0130": 10396,
  "\u0120aer": 10397,
  "\u00e1\u00bb\u0125": 10398,
  "\u0120iso": 10399,
  "Deep": 10400,
  "veau": 10401,
  "inta": 10402,
  "TED": 10403,
  "\u00c3\u00a6r": 10404,
  "mart": 10405,
  "\u00e8\u00af\u0123": 10406,
  "warn": 10407,
  "\u0120Iv": 10408,
  "\u00ce\u00bb": 10409,
  "gary": 10410,
  "\u0120BA": 10411,
  "PART": 10412,
  "\u0120pv": 10413,
  "BLE": 10414,
  ";}\u010a\u010a": 10415,
  "ugo": 10416,
  "\u0120RPG": 10417,
  "\u00d0\u0142": 10418,
  "holm": 10419,
  "Uid": 10420,
  "\u00ec\u013e\u00bc": 10421,
  "\u00ef\u00bc\u0135": 10422,
  "Prev": 10423,
  "\u0120nad": 10424,
  "Forg": 10425,
  "ZZ": 10426,
  "\u0120ssl": 10427,
  "KT": 10428,
  "freq": 10429,
  "blur": 10430,
  "\u00ac\u00b8": 10431,
  "Cs": 10432,
  "BOSE": 10433,
  "\u0120FP": 10434,
  "\u0120Yam": 10435,
  "King": 10436,
  "\u00e0\u00b2": 10437,
  "xbd": 10438,
  "liv": 10439,
  "eft": 10440,
  "\u0120\u00e3\u0122\u0132": 10441,
  "\u0120\"(\"": 10442,
  "\u0120Sr": 10443,
  "\u00ed\u013b": 10444,
  "\u00d1\u012c": 10445,
  "iom": 10446,
  "\u0120Fam": 10447,
  "Bas": 10448,
  "UPER": 10449,
  "INES": 10450,
  "IFIC": 10451,
  "Mid": 10452,
  "dds": 10453,
  "CSS": 10454,
  "\u0120kam": 10455,
  "Yii": 10456,
  "!(\u010a": 10457,
  "\u0120Cod": 10458,
  "rawl": 10459,
  "\u0120ker": 10460,
  "\u00ec\u013f\u0122": 10461,
  "\u0120Org": 10462,
  "\u0120().": 10463,
  "\u0120usa": 10464,
  "\u0120duo": 10465,
  "\"]:\u010a": 10466,
  "\u00e0\u00b4": 10467,
  "Band": 10468,
  "Cnt": 10469,
  "eten": 10470,
  "PID": 10471,
  "dead": 10472,
  "kat": 10473,
  "agh": 10474,
  "\u0120EXT": 10475,
  "\u00c3\u00bas": 10476,
  "iry": 10477,
  "\u0120sue": 10478,
  "iban": 10479,
  "\u0120Ign": 10480,
  "ADI": 10481,
  "erez": 10482,
  "COD": 10483,
  "emma": 10484,
  "Pic": 10485,
  "\u0120>::": 10486,
  "ifa": 10487,
  "\u0120,\"": 10488,
  "\u0120vra": 10489,
  "uche": 10490,
  "\u0120cob": 10491,
  "Stub": 10492,
  "ocy": 10493,
  "vsp": 10494,
  "Camp": 10495,
  "\u00ed\u0126\u00b0": 10496,
  "mis": 10497,
  "uje": 10498,
  "\u00e9\u00a2\u013a": 10499,
  "\u0120Koh": 10500,
  "\u0120ART": 10501,
  "\u0120fps": 10502,
  "\u00ed\u0137\u00b4": 10503,
  "\u0120fw": 10504,
  "udit": 10505,
  "\u0120Sid": 10506,
  "UME": 10507,
  "RAM": 10508,
  "BYTE": 10509,
  "\u0120uso": 10510,
  "uddy": 10511,
  "\u0120ry": 10512,
  "\u0120pon": 10513,
  "cuda": 10514,
  "drag": 10515,
  "mob": 10516,
  "goal": 10517,
  "\u0120GTX": 10518,
  "..\u010a": 10519,
  "\u0120(%)": 10520,
  "\u00e7\u00a1\u00ae": 10521,
  "\u0120mph": 10522,
  "ppy": 10523,
  "\u0109row": 10524,
  "\u0120Rav": 10525,
  "recv": 10526,
  "Jump": 10527,
  "\u0120\u00c3\u00a5r": 10528,
  "\u00e6\u0142\u00bc": 10529,
  "\u00c2\u00af": 10530,
  "\u00e6\u00b8": 10531,
  "IFI": 10532,
  "\u0120fir": 10533,
  "\u00d0\u00a2": 10534,
  "avia": 10535,
  "\u0120RPC": 10536,
  "Dll": 10537,
  "chez": 10538,
  "four": 10539,
  "|;\u010a": 10540,
  "\u0120\u00c3\u0138": 10541,
  ".\u00e2\u0122\u013e": 10542,
  "osit": 10543,
  "eee": 10544,
  "LB": 10545,
  "JK": 10546,
  "gos": 10547,
  "Pipe": 10548,
  "ulla": 10549,
  ".\u00e2\u0122\u0136": 10550,
  "\u0120dh": 10551,
  "Tech": 10552,
  "gem": 10553,
  "Ev": 10554,
  "erti": 10555,
  "\u0120//[": 10556,
  "dar": 10557,
  "vinc": 10558,
  "\u0120\u00eb\u012d": 10559,
  "crop": 10560,
  "TIM": 10561,
  "\u0109\u0109\u010a\u010a": 10562,
  "tick": 10563,
  "emas": 10564,
  "CAST": 10565,
  "jon": 10566,
  "\u0120TOD": 10567,
  "Xd": 10568,
  "afx": 10569,
  "dale": 10570,
  "\u00e4\u00ba\u0128": 10571,
  "lene": 10572,
  "\u0120Fem": 10573,
  "\u00d1\u0125\u00d0\u00bd": 10574,
  "ISA": 10575,
  "\u00e4\u00ba\u0130": 10576,
  "Dot": 10577,
  "\u0120hey": 10578,
  "\u0120sut": 10579,
  "iamo": 10580,
  "oks": 10581,
  "\u00e9\u0129\u0133": 10582,
  "\u0120ada": 10583,
  "reur": 10584,
  "Buff": 10585,
  "\u0109RE": 10586,
  "\u00c3\u00bcnd": 10587,
  "ilde": 10588,
  "\u0120vk": 10589,
  "ia\u00c5\u0124": 10590,
  "\u0120pyl": 10591,
  "\u0120Lov": 10592,
  ":\"\u010a": 10593,
  "hm": 10594,
  "\u00c3\u0143st": 10595,
  "htag": 10596,
  "\u00e5\u0127\u00ac": 10597,
  "/\\": 10598,
  "\u0120ht": 10599,
  "\u00e5\u012f\u012a": 10600,
  "%.\u010a\u010a": 10601,
  "\u0120upt": 10602,
  "\u0120[&": 10603,
  "\u0120\u00d0\u0140": 10604,
  "CHED": 10605,
  "rink": 10606,
  "\u0120\u00e5\u0127": 10607,
  "\u00e0\u00a5\u0129": 10608,
  "eyer": 10609,
  "\u0120bw": 10610,
  "dfs": 10611,
  "\u0120PUT": 10612,
  "encv": 10613,
  "\u0120Suz": 10614,
  "\u0120rr": 10615,
  "\u00ea\u00b3\u0142": 10616,
  "\u00c3\u00b3g": 10617,
  "\u0120k\u00c3\u00b8": 10618,
  ":\")\u010a": 10619,
  "\u0120\u00e2\u0141": 10620,
  "tons": 10621,
  "hots": 10622,
  "\u0120UR": 10623,
  "Mont": 10624,
  "inea": 10625,
  "\u0120bog": 10626,
  "\u0135\u012f": 10627,
  "vw": 10628,
  "rant": 10629,
  "CTRL": 10630,
  "Mike": 10631,
  "hire": 10632,
  "cad": 10633,
  "\u0120LT": 10634,
  "\u0109ss": 10635,
  "voir": 10636,
  "tls": 10637,
  "uity": 10638,
  "NAS": 10639,
  "loe": 10640,
  "\u00e0\u00b8\u00a2": 10641,
  "\u0120/^": 10642,
  "CY": 10643,
  "IMP": 10644,
  "gold": 10645,
  "bach": 10646,
  "\u0120~(": 10647,
  "\u00c3\u00b4t": 10648,
  "nod": 10649,
  "\u00d1\u012d\u00d0\u00b2": 10650,
  "grey": 10651,
  "many": 10652,
  "\u00ec\u0128": 10653,
  "omon": 10654,
  "iii": 10655,
  "\u0109dis": 10656,
  "acci": 10657,
  "lush": 10658,
  "avin": 10659,
  "\u00e5\u0141": 10660,
  "\u00d1\u012d\u00d0\u00b9": 10661,
  "\u0120Jah": 10662,
  "Ren": 10663,
  "\u00e2\u0141": 10664,
  "\u0120Aur": 10665,
  "why": 10666,
  "\u0120sap": 10667,
  "\u0120:\"": 10668,
  "\u0120pkt": 10669,
  "\u00e5\u0128\u0128": 10670,
  "aeda": 10671,
  "\u0120Nad": 10672,
  "Sy": 10673,
  "Met": 10674,
  "paid": 10675,
  "tron": 10676,
  "eton": 10677,
  "roe": 10678,
  "uide": 10679,
  "\u00e7\u012b\u0129": 10680,
  "\u0120vb": 10681,
  "\u0120eig": 10682,
  "TECT": 10683,
  "rien": 10684,
  "lec": 10685,
  "eer": 10686,
  "uzzy": 10687,
  "\u00ed\u013a": 10688,
  "Pi": 10689,
  "\u0120\\\"\"": 10690,
  "._\u010a\u010a": 10691,
  "\u0120Lan": 10692,
  "\u0120\u00d0\u013f": 10693,
  "\u00e7\u00a9\u00ba": 10694,
  "sil": 10695,
  "\u00b7\u00bb": 10696,
  "\u0120Spa": 10697,
  "Pet": 10698,
  "\\\">\u010a": 10699,
  "\u0120vp": 10700,
  "\u0120ia": 10701,
  "emet": 10702,
  "Dest": 10703,
  "\u0120NH": 10704,
  "\u0120Jak": 10705,
  "sell": 10706,
  "hom": 10707,
  "gid": 10708,
  "Pt": 10709,
  "\u0120Pul": 10710,
  "alis": 10711,
  "boro": 10712,
  "\u0120bm": 10713,
  "iji": 10714,
  "Sat": 10715,
  "das": 10716,
  "Conv": 10717,
  "i\u00c3\u00b3": 10718,
  "\u0120Wir": 10719,
  "\u0120Mob": 10720,
  "\u0120([]": 10721,
  "iba": 10722,
  "isha": 10723,
  "wcs": 10724,
  "zc": 10725,
  "lift": 10726,
  "ondo": 10727,
  "\u0120INF": 10728,
  "\u0120Kaz": 10729,
  "leur": 10730,
  "\u0120NB": 10731,
  "blk": 10732,
  "\u00ec\u013a": 10733,
  "\u0120MN": 10734,
  "indo": 10735,
  "\u0120gj": 10736,
  "\u0120||=": 10737,
  "iek": 10738,
  "\u0109ps": 10739,
  "ieg": 10740,
  "soap": 10741,
  "\u00e6\u00ba": 10742,
  "AU": 10743,
  "\u0120lod": 10744,
  "\u0120Ip": 10745,
  "iane": 10746,
  "\u00d8\u00a7\u00d8\u00b1": 10747,
  "\u0120RTC": 10748,
  "\u00e6\u00ae": 10749,
  "Rock": 10750,
  "Way": 10751,
  "\u00ec\u00b2": 10752,
  "\u0120VIP": 10753,
  "\u0120Kor": 10754,
  "mix": 10755,
  "/\",\u010a": 10756,
  "\u0120tee": 10757,
  "\u0120neo": 10758,
  "\u0120Arn": 10759,
  "})\u010d\u010a": 10760,
  "alin": 10761,
  "blob": 10762,
  "Give": 10763,
  "Skip": 10764,
  "dg": 10765,
  "\u00a3\u00bc": 10766,
  "lov": 10767,
[...]
